{
  "version": "1.0",
  "truncation": null,
  "padding": null,
  "added_tokens": [
    {
      "id": 0,
      "content": "<pad>",
      "single_word": false,
      "lstrip": false,
      "rstrip": false,
      "normalized": false,
      "special": true
    },
    {
      "id": 1,
      "content": "<s>",
      "single_word": false,
      "lstrip": false,
      "rstrip": false,
      "normalized": false,
      "special": true
    },
    {
      "id": 2,
      "content": "</s>",
      "single_word": false,
      "lstrip": false,
      "rstrip": false,
      "normalized": false,
      "special": true
    },
    {
      "id": 3,
      "content": "<unk>",
      "single_word": false,
      "lstrip": false,
      "rstrip": false,
      "normalized": false,
      "special": true
    },
    {
      "id": 4,
      "content": "<mask>",
      "single_word": false,
      "lstrip": false,
      "rstrip": false,
      "normalized": false,
      "special": true
    },
    {
      "id": 32128,
      "content": "<extra_id_0>",
      "single_word": false,
      "lstrip": false,
      "rstrip": false,
      "normalized": false,
      "special": true
    },
    {
      "id": 32129,
      "content": "<extra_id_1>",
      "single_word": false,
      "lstrip": false,
      "rstrip": false,
      "normalized": false,
      "special": true
    },
    {
      "id": 32130,
      "content": "<extra_id_2>",
      "single_word": false,
      "lstrip": false,
      "rstrip": false,
      "normalized": false,
      "special": true
    },
    {
      "id": 32131,
      "content": "<extra_id_3>",
      "single_word": false,
      "lstrip": false,
      "rstrip": false,
      "normalized": false,
      "special": true
    },
    {
      "id": 32132,
      "content": "<extra_id_4>",
      "single_word": false,
      "lstrip": false,
      "rstrip": false,
      "normalized": false,
      "special": true
    },
    {
      "id": 32133,
      "content": "<extra_id_5>",
      "single_word": false,
      "lstrip": false,
      "rstrip": false,
      "normalized": false,
      "special": true
    },
    {
      "id": 32134,
      "content": "<extra_id_6>",
      "single_word": false,
      "lstrip": false,
      "rstrip": false,
      "normalized": false,
      "special": true
    },
    {
      "id": 32135,
      "content": "<extra_id_7>",
      "single_word": false,
      "lstrip": false,
      "rstrip": false,
      "normalized": false,
      "special": true
    },
    {
      "id": 32136,
      "content": "<extra_id_8>",
      "single_word": false,
      "lstrip": false,
      "rstrip": false,
      "normalized": false,
      "special": true
    },
    {
      "id": 32137,
      "content": "<extra_id_9>",
      "single_word": false,
      "lstrip": false,
      "rstrip": false,
      "normalized": false,
      "special": true
    },
    {
      "id": 32138,
      "content": "<extra_id_10>",
      "single_word": false,
      "lstrip": false,
      "rstrip": false,
      "normalized": false,
      "special": true
    },
    {
      "id": 32139,
      "content": "<extra_id_11>",
      "single_word": false,
      "lstrip": false,
      "rstrip": false,
      "normalized": false,
      "special": true
    },
    {
      "id": 32140,
      "content": "<extra_id_12>",
      "single_word": false,
      "lstrip": false,
      "rstrip": false,
      "normalized": false,
      "special": true
    },
    {
      "id": 32141,
      "content": "<extra_id_13>",
      "single_word": false,
      "lstrip": false,
      "rstrip": false,
      "normalized": false,
      "special": true
    },
    {
      "id": 32142,
      "content": "<extra_id_14>",
      "single_word": false,
      "lstrip": false,
      "rstrip": false,
      "normalized": false,
      "special": true
    },
    {
      "id": 32143,
      "content": "<extra_id_15>",
      "single_word": false,
      "lstrip": false,
      "rstrip": false,
      "normalized": false,
      "special": true
    },
    {
      "id": 32144,
      "content": "<extra_id_16>",
      "single_word": false,
      "lstrip": false,
      "rstrip": false,
      "normalized": false,
      "special": true
    },
    {
      "id": 32145,
      "content": "<extra_id_17>",
      "single_word": false,
      "lstrip": false,
      "rstrip": false,
      "normalized": false,
      "special": true
    },
    {
      "id": 32146,
      "content": "<extra_id_18>",
      "single_word": false,
      "lstrip": false,
      "rstrip": false,
      "normalized": false,
      "special": true
    },
    {
      "id": 32147,
      "content": "<extra_id_19>",
      "single_word": false,
      "lstrip": false,
      "rstrip": false,
      "normalized": false,
      "special": true
    },
    {
      "id": 32148,
      "content": "<extra_id_20>",
      "single_word": false,
      "lstrip": false,
      "rstrip": false,
      "normalized": false,
      "special": true
    },
    {
      "id": 32149,
      "content": "<extra_id_21>",
      "single_word": false,
      "lstrip": false,
      "rstrip": false,
      "normalized": false,
      "special": true
    },
    {
      "id": 32150,
      "content": "<extra_id_22>",
      "single_word": false,
      "lstrip": false,
      "rstrip": false,
      "normalized": false,
      "special": true
    },
    {
      "id": 32151,
      "content": "<extra_id_23>",
      "single_word": false,
      "lstrip": false,
      "rstrip": false,
      "normalized": false,
      "special": true
    },
    {
      "id": 32152,
      "content": "<extra_id_24>",
      "single_word": false,
      "lstrip": false,
      "rstrip": false,
      "normalized": false,
      "special": true
    },
    {
      "id": 32153,
      "content": "<extra_id_25>",
      "single_word": false,
      "lstrip": false,
      "rstrip": false,
      "normalized": false,
      "special": true
    },
    {
      "id": 32154,
      "content": "<extra_id_26>",
      "single_word": false,
      "lstrip": false,
      "rstrip": false,
      "normalized": false,
      "special": true
    },
    {
      "id": 32155,
      "content": "<extra_id_27>",
      "single_word": false,
      "lstrip": false,
      "rstrip": false,
      "normalized": false,
      "special": true
    },
    {
      "id": 32156,
      "content": "<extra_id_28>",
      "single_word": false,
      "lstrip": false,
      "rstrip": false,
      "normalized": false,
      "special": true
    },
    {
      "id": 32157,
      "content": "<extra_id_29>",
      "single_word": false,
      "lstrip": false,
      "rstrip": false,
      "normalized": false,
      "special": true
    },
    {
      "id": 32158,
      "content": "<extra_id_30>",
      "single_word": false,
      "lstrip": false,
      "rstrip": false,
      "normalized": false,
      "special": true
    },
    {
      "id": 32159,
      "content": "<extra_id_31>",
      "single_word": false,
      "lstrip": false,
      "rstrip": false,
      "normalized": false,
      "special": true
    },
    {
      "id": 32160,
      "content": "<extra_id_32>",
      "single_word": false,
      "lstrip": false,
      "rstrip": false,
      "normalized": false,
      "special": true
    },
    {
      "id": 32161,
      "content": "<extra_id_33>",
      "single_word": false,
      "lstrip": false,
      "rstrip": false,
      "normalized": false,
      "special": true
    },
    {
      "id": 32162,
      "content": "<extra_id_34>",
      "single_word": false,
      "lstrip": false,
      "rstrip": false,
      "normalized": false,
      "special": true
    },
    {
      "id": 32163,
      "content": "<extra_id_35>",
      "single_word": false,
      "lstrip": false,
      "rstrip": false,
      "normalized": false,
      "special": true
    },
    {
      "id": 32164,
      "content": "<extra_id_36>",
      "single_word": false,
      "lstrip": false,
      "rstrip": false,
      "normalized": false,
      "special": true
    },
    {
      "id": 32165,
      "content": "<extra_id_37>",
      "single_word": false,
      "lstrip": false,
      "rstrip": false,
      "normalized": false,
      "special": true
    },
    {
      "id": 32166,
      "content": "<extra_id_38>",
      "single_word": false,
      "lstrip": false,
      "rstrip": false,
      "normalized": false,
      "special": true
    },
    {
      "id": 32167,
      "content": "<extra_id_39>",
      "single_word": false,
      "lstrip": false,
      "rstrip": false,
      "normalized": false,
      "special": true
    },
    {
      "id": 32168,
      "content": "<extra_id_40>",
      "single_word": false,
      "lstrip": false,
      "rstrip": false,
      "normalized": false,
      "special": true
    },
    {
      "id": 32169,
      "content": "<extra_id_41>",
      "single_word": false,
      "lstrip": false,
      "rstrip": false,
      "normalized": false,
      "special": true
    },
    {
      "id": 32170,
      "content": "<extra_id_42>",
      "single_word": false,
      "lstrip": false,
      "rstrip": false,
      "normalized": false,
      "special": true
    },
    {
      "id": 32171,
      "content": "<extra_id_43>",
      "single_word": false,
      "lstrip": false,
      "rstrip": false,
      "normalized": false,
      "special": true
    },
    {
      "id": 32172,
      "content": "<extra_id_44>",
      "single_word": false,
      "lstrip": false,
      "rstrip": false,
      "normalized": false,
      "special": true
    },
    {
      "id": 32173,
      "content": "<extra_id_45>",
      "single_word": false,
      "lstrip": false,
      "rstrip": false,
      "normalized": false,
      "special": true
    },
    {
      "id": 32174,
      "content": "<extra_id_46>",
      "single_word": false,
      "lstrip": false,
      "rstrip": false,
      "normalized": false,
      "special": true
    },
    {
      "id": 32175,
      "content": "<extra_id_47>",
      "single_word": false,
      "lstrip": false,
      "rstrip": false,
      "normalized": false,
      "special": true
    },
    {
      "id": 32176,
      "content": "<extra_id_48>",
      "single_word": false,
      "lstrip": false,
      "rstrip": false,
      "normalized": false,
      "special": true
    },
    {
      "id": 32177,
      "content": "<extra_id_49>",
      "single_word": false,
      "lstrip": false,
      "rstrip": false,
      "normalized": false,
      "special": true
    },
    {
      "id": 32178,
      "content": "<extra_id_50>",
      "single_word": false,
      "lstrip": false,
      "rstrip": false,
      "normalized": false,
      "special": true
    },
    {
      "id": 32179,
      "content": "<extra_id_51>",
      "single_word": false,
      "lstrip": false,
      "rstrip": false,
      "normalized": false,
      "special": true
    },
    {
      "id": 32180,
      "content": "<extra_id_52>",
      "single_word": false,
      "lstrip": false,
      "rstrip": false,
      "normalized": false,
      "special": true
    },
    {
      "id": 32181,
      "content": "<extra_id_53>",
      "single_word": false,
      "lstrip": false,
      "rstrip": false,
      "normalized": false,
      "special": true
    },
    {
      "id": 32182,
      "content": "<extra_id_54>",
      "single_word": false,
      "lstrip": false,
      "rstrip": false,
      "normalized": false,
      "special": true
    },
    {
      "id": 32183,
      "content": "<extra_id_55>",
      "single_word": false,
      "lstrip": false,
      "rstrip": false,
      "normalized": false,
      "special": true
    },
    {
      "id": 32184,
      "content": "<extra_id_56>",
      "single_word": false,
      "lstrip": false,
      "rstrip": false,
      "normalized": false,
      "special": true
    },
    {
      "id": 32185,
      "content": "<extra_id_57>",
      "single_word": false,
      "lstrip": false,
      "rstrip": false,
      "normalized": false,
      "special": true
    },
    {
      "id": 32186,
      "content": "<extra_id_58>",
      "single_word": false,
      "lstrip": false,
      "rstrip": false,
      "normalized": false,
      "special": true
    },
    {
      "id": 32187,
      "content": "<extra_id_59>",
      "single_word": false,
      "lstrip": false,
      "rstrip": false,
      "normalized": false,
      "special": true
    },
    {
      "id": 32188,
      "content": "<extra_id_60>",
      "single_word": false,
      "lstrip": false,
      "rstrip": false,
      "normalized": false,
      "special": true
    },
    {
      "id": 32189,
      "content": "<extra_id_61>",
      "single_word": false,
      "lstrip": false,
      "rstrip": false,
      "normalized": false,
      "special": true
    },
    {
      "id": 32190,
      "content": "<extra_id_62>",
      "single_word": false,
      "lstrip": false,
      "rstrip": false,
      "normalized": false,
      "special": true
    },
    {
      "id": 32191,
      "content": "<extra_id_63>",
      "single_word": false,
      "lstrip": false,
      "rstrip": false,
      "normalized": false,
      "special": true
    },
    {
      "id": 32192,
      "content": "<extra_id_64>",
      "single_word": false,
      "lstrip": false,
      "rstrip": false,
      "normalized": false,
      "special": true
    },
    {
      "id": 32193,
      "content": "<extra_id_65>",
      "single_word": false,
      "lstrip": false,
      "rstrip": false,
      "normalized": false,
      "special": true
    },
    {
      "id": 32194,
      "content": "<extra_id_66>",
      "single_word": false,
      "lstrip": false,
      "rstrip": false,
      "normalized": false,
      "special": true
    },
    {
      "id": 32195,
      "content": "<extra_id_67>",
      "single_word": false,
      "lstrip": false,
      "rstrip": false,
      "normalized": false,
      "special": true
    },
    {
      "id": 32196,
      "content": "<extra_id_68>",
      "single_word": false,
      "lstrip": false,
      "rstrip": false,
      "normalized": false,
      "special": true
    },
    {
      "id": 32197,
      "content": "<extra_id_69>",
      "single_word": false,
      "lstrip": false,
      "rstrip": false,
      "normalized": false,
      "special": true
    },
    {
      "id": 32198,
      "content": "<extra_id_70>",
      "single_word": false,
      "lstrip": false,
      "rstrip": false,
      "normalized": false,
      "special": true
    },
    {
      "id": 32199,
      "content": "<extra_id_71>",
      "single_word": false,
      "lstrip": false,
      "rstrip": false,
      "normalized": false,
      "special": true
    },
    {
      "id": 32200,
      "content": "<extra_id_72>",
      "single_word": false,
      "lstrip": false,
      "rstrip": false,
      "normalized": false,
      "special": true
    },
    {
      "id": 32201,
      "content": "<extra_id_73>",
      "single_word": false,
      "lstrip": false,
      "rstrip": false,
      "normalized": false,
      "special": true
    },
    {
      "id": 32202,
      "content": "<extra_id_74>",
      "single_word": false,
      "lstrip": false,
      "rstrip": false,
      "normalized": false,
      "special": true
    },
    {
      "id": 32203,
      "content": "<extra_id_75>",
      "single_word": false,
      "lstrip": false,
      "rstrip": false,
      "normalized": false,
      "special": true
    },
    {
      "id": 32204,
      "content": "<extra_id_76>",
      "single_word": false,
      "lstrip": false,
      "rstrip": false,
      "normalized": false,
      "special": true
    },
    {
      "id": 32205,
      "content": "<extra_id_77>",
      "single_word": false,
      "lstrip": false,
      "rstrip": false,
      "normalized": false,
      "special": true
    },
    {
      "id": 32206,
      "content": "<extra_id_78>",
      "single_word": false,
      "lstrip": false,
      "rstrip": false,
      "normalized": false,
      "special": true
    },
    {
      "id": 32207,
      "content": "<extra_id_79>",
      "single_word": false,
      "lstrip": false,
      "rstrip": false,
      "normalized": false,
      "special": true
    },
    {
      "id": 32208,
      "content": "<extra_id_80>",
      "single_word": false,
      "lstrip": false,
      "rstrip": false,
      "normalized": false,
      "special": true
    },
    {
      "id": 32209,
      "content": "<extra_id_81>",
      "single_word": false,
      "lstrip": false,
      "rstrip": false,
      "normalized": false,
      "special": true
    },
    {
      "id": 32210,
      "content": "<extra_id_82>",
      "single_word": false,
      "lstrip": false,
      "rstrip": false,
      "normalized": false,
      "special": true
    },
    {
      "id": 32211,
      "content": "<extra_id_83>",
      "single_word": false,
      "lstrip": false,
      "rstrip": false,
      "normalized": false,
      "special": true
    },
    {
      "id": 32212,
      "content": "<extra_id_84>",
      "single_word": false,
      "lstrip": false,
      "rstrip": false,
      "normalized": false,
      "special": true
    },
    {
      "id": 32213,
      "content": "<extra_id_85>",
      "single_word": false,
      "lstrip": false,
      "rstrip": false,
      "normalized": false,
      "special": true
    },
    {
      "id": 32214,
      "content": "<extra_id_86>",
      "single_word": false,
      "lstrip": false,
      "rstrip": false,
      "normalized": false,
      "special": true
    },
    {
      "id": 32215,
      "content": "<extra_id_87>",
      "single_word": false,
      "lstrip": false,
      "rstrip": false,
      "normalized": false,
      "special": true
    },
    {
      "id": 32216,
      "content": "<extra_id_88>",
      "single_word": false,
      "lstrip": false,
      "rstrip": false,
      "normalized": false,
      "special": true
    },
    {
      "id": 32217,
      "content": "<extra_id_89>",
      "single_word": false,
      "lstrip": false,
      "rstrip": false,
      "normalized": false,
      "special": true
    },
    {
      "id": 32218,
      "content": "<extra_id_90>",
      "single_word": false,
      "lstrip": false,
      "rstrip": false,
      "normalized": false,
      "special": true
    },
    {
      "id": 32219,
      "content": "<extra_id_91>",
      "single_word": false,
      "lstrip": false,
      "rstrip": false,
      "normalized": false,
      "special": true
    },
    {
      "id": 32220,
      "content": "<extra_id_92>",
      "single_word": false,
      "lstrip": false,
      "rstrip": false,
      "normalized": false,
      "special": true
    },
    {
      "id": 32221,
      "content": "<extra_id_93>",
      "single_word": false,
      "lstrip": false,
      "rstrip": false,
      "normalized": false,
      "special": true
    },
    {
      "id": 32222,
      "content": "<extra_id_94>",
      "single_word": false,
      "lstrip": false,
      "rstrip": false,
      "normalized": false,
      "special": true
    },
    {
      "id": 32223,
      "content": "<extra_id_95>",
      "single_word": false,
      "lstrip": false,
      "rstrip": false,
      "normalized": false,
      "special": true
    },
    {
      "id": 32224,
      "content": "<extra_id_96>",
      "single_word": false,
      "lstrip": false,
      "rstrip": false,
      "normalized": false,
      "special": true
    },
    {
      "id": 32225,
      "content": "<extra_id_97>",
      "single_word": false,
      "lstrip": false,
      "rstrip": false,
      "normalized": false,
      "special": true
    },
    {
      "id": 32226,
      "content": "<extra_id_98>",
      "single_word": false,
      "lstrip": false,
      "rstrip": false,
      "normalized": false,
      "special": true
    },
    {
      "id": 32227,
      "content": "<extra_id_99>",
      "single_word": false,
      "lstrip": false,
      "rstrip": false,
      "normalized": false,
      "special": true
    }
  ],
  "normalizer": null,
  "pre_tokenizer": {
    "type": "ByteLevel",
    "add_prefix_space": true,
    "trim_offsets": true,
    "use_regex": true
  },
  "post_processor": {
    "type": "ByteLevel",
    "add_prefix_space": true,
    "trim_offsets": true,
    "use_regex": true
  },
  "decoder": {
    "type": "ByteLevel",
    "add_prefix_space": true,
    "trim_offsets": true,
    "use_regex": true
  },
  "model": {
    "type": "BPE",
    "dropout": null,
    "unk_token": null,
    "continuing_subword_prefix": null,
    "end_of_word_suffix": null,
    "fuse_unk": false,
    "byte_fallback": false,
    "vocab": {
      "<pad>": 0,
      "<s>": 1,
      "</s>": 2,
      "<unk>": 3,
      "<mask>": 4,
      "!": 5,
      "\"": 6,
      "#": 7,
      "$": 8,
      "%": 9,
      "&": 10,
      "'": 11,
      "(": 12,
      ")": 13,
      "*": 14,
      "+": 15,
      ",": 16,
      "-": 17,
      ".": 18,
      "/": 19,
      "0": 20,
      "1": 21,
      "2": 22,
      "3": 23,
      "4": 24,
      "5": 25,
      "6": 26,
      "7": 27,
      "8": 28,
      "9": 29,
      ":": 30,
      ";": 31,
      "<": 32,
      "=": 33,
      ">": 34,
      "?": 35,
      "@": 36,
      "A": 37,
      "B": 38,
      "C": 39,
      "D": 40,
      "E": 41,
      "F": 42,
      "G": 43,
      "H": 44,
      "I": 45,
      "J": 46,
      "K": 47,
      "L": 48,
      "M": 49,
      "N": 50,
      "O": 51,
      "P": 52,
      "Q": 53,
      "R": 54,
      "S": 55,
      "T": 56,
      "U": 57,
      "V": 58,
      "W": 59,
      "X": 60,
      "Y": 61,
      "Z": 62,
      "[": 63,
      "\\": 64,
      "]": 65,
      "^": 66,
      "_": 67,
      "a": 68,
      "b": 69,
      "c": 70,
      "d": 71,
      "e": 72,
      "f": 73,
      "g": 74,
      "h": 75,
      "i": 76,
      "j": 77,
      "k": 78,
      "l": 79,
      "m": 80,
      "n": 81,
      "o": 82,
      "p": 83,
      "q": 84,
      "r": 85,
      "s": 86,
      "t": 87,
      "u": 88,
      "v": 89,
      "w": 90,
      "x": 91,
      "y": 92,
      "z": 93,
      "{": 94,
      "|": 95,
      "}": 96,
      "~": 97,
      "¡": 98,
      "¢": 99,
      "£": 100,
      "¤": 101,
      "¥": 102,
      "¦": 103,
      "§": 104,
      "¨": 105,
      "©": 106,
      "«": 107,
      "¬": 108,
      "®": 109,
      "°": 110,
      "±": 111,
      "²": 112,
      "³": 113,
      "´": 114,
      "µ": 115,
      "¶": 116,
      "·": 117,
      "¸": 118,
      "º": 119,
      "»": 120,
      "¼": 121,
      "½": 122,
      "¾": 123,
      "¿": 124,
      "Â": 125,
      "Ã": 126,
      "Ä": 127,
      "Å": 128,
      "È": 129,
      "Ì": 130,
      "Î": 131,
      "Ï": 132,
      "â": 133,
      "ï": 134,
      "ð": 135,
      "ĉ": 136,
      "Ġ": 137,
      "Ģ": 138,
      "ģ": 139,
      "Ĥ": 140,
      "ĥ": 141,
      "Ħ": 142,
      "ħ": 143,
      "Ĩ": 144,
      "ĩ": 145,
      "Ī": 146,
      "ī": 147,
      "Ĭ": 148,
      "ĭ": 149,
      "Į": 150,
      "İ": 151,
      "ı": 152,
      "Ĳ": 153,
      "ĳ": 154,
      "Ĵ": 155,
      "ĵ": 156,
      "Ķ": 157,
      "ĸ": 158,
      "Ĺ": 159,
      "ĺ": 160,
      "Ļ": 161,
      "ļ": 162,
      "Ľ": 163,
      "ľ": 164,
      "Ŀ": 165,
      "ŀ": 166,
      "Ł": 167,
      "ł": 168,
      "Ń": 169,
      "Ä±": 170,
      "Ã¼": 171,
      "ar": 172,
      "Ġb": 173,
      "ÅŁ": 174,
      "an": 175,
      "er": 176,
      "in": 177,
      "ÄŁ": 178,
      "Ġk": 179,
      "en": 180,
      "Ġd": 181,
      "ir": 182,
      "Ä±n": 183,
      "Ã§": 184,
      "Ġs": 185,
      "ma": 186,
      "Ġy": 187,
      "or": 188,
      "il": 189,
      "Ġg": 190,
      "Ġa": 191,
      "Ã¶": 192,
      "lar": 193,
      "me": 194,
      "Ġv": 195,
      "Ġh": 196,
      "Ġo": 197,
      "un": 198,
      "la": 199,
      "..": 200,
      "da": 201,
      "im": 202,
      "iy": 203,
      "ek": 204,
      "el": 205,
      "Ġbir": 206,
      "ak": 207,
      "Ġt": 208,
      "lÄ±": 209,
      "Ġi": 210,
      "dÄ±": 211,
      "Ġve": 212,
      "de": 213,
      "le": 214,
      "ler": 215,
      "um": 216,
      "on": 217,
      "Ġka": 218,
      "ik": 219,
      "ur": 220,
      "ĠB": 221,
      "Ã¼n": 222,
      "tÄ±": 223,
      "et": 224,
      "as": 225,
      "ĠÃ§": 226,
      "di": 227,
      "Ġya": 228,
      "Ġol": 229,
      "Ġ\"": 230,
      "yor": 231,
      "es": 232,
      "ta": 233,
      "Ä±m": 234,
      "iÅŁ": 235,
      "Ġde": 236,
      "Ġm": 237,
      "ya": 238,
      "iz": 239,
      "....": 240,
      "em": 241,
      "sÄ±": 242,
      "du": 243,
      "ĠS": 244,
      "âĢ": 245,
      "ok": 246,
      "Ġn": 247,
      "ul": 248,
      "den": 249,
      "al": 250,
      "ĠÃ¶": 251,
      "rÄ±": 252,
      "is": 253,
      "Ġba": 254,
      "\":": 255,
      "iyor": 256,
      "ĠgÃ¶": 257,
      "Ġda": 258,
      "Ã¼r": 259,
      "ra": 260,
      "ey": 261,
      "ĠÅŁ": 262,
      "dan": 263,
      "uk": 264,
      "Ä±k": 265,
      "ĠH": 266,
      "Ä±nda": 267,
      "te": 268,
      "ĠA": 269,
      "ĠK": 270,
      "Ġe": 271,
      "Ä±ÅŁ": 272,
      "ce": 273,
      "ti": 274,
      "Ġsa": 275,
      "ĠiÃ§": 276,
      "am": 277,
      "Ä±nÄ±": 278,
      "li": 279,
      "Ã¼k": 280,
      "Ġbu": 281,
      "at": 282,
      "ol": 283,
      "Ä±r": 284,
      "Ġp": 285,
      "lan": 286,
      "Ã¼z": 287,
      "ĠaÄŁ": 288,
      "ini": 289,
      "larÄ±": 290,
      "Ġu": 291,
      "Ġil": 292,
      "lÄ±k": 293,
      "om": 294,
      "it": 295,
      "st": 296,
      "ĠiÃ§in": 297,
      "Ġal": 298,
      "Ġz": 299,
      "id": 300,
      "Ä°": 301,
      "ay": 302,
      "san": 303,
      "Ġan": 304,
      "Ġf": 305,
      "ÄŁÄ±": 306,
      "mak": 307,
      "ĠT": 308,
      "ara": 309,
      ",,": 310,
      "Ġne": 311,
      "ĠbaÅŁ": 312,
      "mek": 313,
      "Ä±l": 314,
      "ha": 315,
      "ki": 316,
      "ĠD": 317,
      "si": 318,
      "ĠgÃ¶r": 319,
      "az": 320,
      "........": 321,
      "uÅŁ": 322,
      "lik": 323,
      "Ġyap": 324,
      "Ä±z": 325,
      "bi": 326,
      "ĠaÄŁrÄ±": 327,
      "Ã¼m": 328,
      "Ä±yor": 329,
      "bil": 330,
      "ca": 331,
      "Ġson": 332,
      "ine": 333,
      "insan": 334,
      "pt": 335,
      "unu": 336,
      "Ġbil": 337,
      "Ã¼ÅŁ": 338,
      "Ġha": 339,
      "larÄ±n": 340,
      "Ġvar": 341,
      "us": 342,
      "Ġet": 343,
      "ĠÃ¶n": 344,
      "ĠY": 345,
      "Ġay": 346,
      "ev": 347,
      "dÄ±r": 348,
      "ĠsÃ¶": 349,
      "ptom": 350,
      "Ġkar": 351,
      "Ġar": 352,
      "Ã¼l": 353,
      "eri": 354,
      "Ġoldu": 355,
      "Ġben": 356,
      "Ġ1": 357,
      "mÄ±ÅŁ": 358,
      "cak": 359,
      "ÄŁi": 360,
      "inde": 361,
      "Ġgi": 362,
      "Ġ(": 363,
      "ut": 364,
      "inin": 365,
      "âĢĻ": 366,
      "masÄ±": 367,
      "dir": 368,
      "miÅŁ": 369,
      "ana": 370,
      "Ġr": 371,
      "ĠâĢ": 372,
      "Ä±na": 373,
      "Ġge": 374,
      "ĠÄ°": 375,
      "ka": 376,
      "Ġger": 377,
      "Ġon": 378,
      "ĠO": 379,
      "ĠG": 380,
      "dÄ±m": 381,
      "yle": 382,
      "leri": 383,
      "ĠyaÅŁ": 384,
      "ĠÃ": 385,
      "emptom": 386,
      "dim": 387,
      "Ġkad": 388,
      "se": 389,
      "ĠM": 390,
      "Ġgibi": 391,
      "oÄŁ": 392,
      "tan": 393,
      "sa": 394,
      "emptomlar": 395,
      "Ġver": 396,
      "Ġhas": 397,
      "Ġte": 398,
      "ĠdeÄŁ": 399,
      "ba": 400,
      "Ã¼t": 401,
      "Ġgel": 402,
      "Ġ2": 403,
      "Ġed": 404,
      "ĠolduÄŁ": 405,
      "ĠÃ§Ä±k": 406,
      "Ġkon": 407,
      "Ġkal": 408,
      "Ġ{": 409,
      "\",": 410,
      "ĠgÃ¼n": 411,
      "semptomlar": 412,
      "\"}": 413,
      "Ġ{\"": 414,
      "iyorum": 415,
      "mesi": 416,
      "ĠE": 417,
      "Ġuy": 418,
      "len": 419,
      "ĠdÃ¼ÅŁ": 420,
      "aÅŁ": 421,
      "iye": 422,
      "Ġolma": 423,
      "Ġc": 424,
      "laÅŁ": 425,
      "Ġher": 426,
      "ĠN": 427,
      "cÄ±": 428,
      "ĠÃ§ok": 429,
      "iler": 430,
      "ĠBu": 431,
      "met": 432,
      "Ġdur": 433,
      "uyor": 434,
      "tir": 435,
      "Ġen": 436,
      "Ġbul": 437,
      "Ã¶n": 438,
      "uz": 439,
      "ĠiÅŁ": 440,
      "yÄ±": 441,
      "mey": 442,
      "ÄŁÄ±m": 443,
      "aman": 444,
      "tÄ±r": 445,
      "lama": 446,
      "ĠâĢľ": 447,
      "ĠÅŁey": 448,
      "eler": 449,
      "ec": 450,
      "âĢĿ": 451,
      "Ġsor": 452,
      "ÄŁim": 453,
      "ĠgeÃ§": 454,
      "Ġzaman": 455,
      "Ġkadar": 456,
      "bilir": 457,
      "iÃ§": 458,
      "Ġdaha": 459,
      "Ġbel": 460,
      "Ġken": 461,
      "Ã¢": 462,
      "Ġbo": 463,
      "ĠÂ": 464,
      "Ġyer": 465,
      "................": 466,
      "yon": 467,
      "Ġsonra": 468,
      "uy": 469,
      "ro": 470,
      "Ġyan": 471,
      "Ġola": 472,
      "Ġor": 473,
      "alÄ±": 474,
      "ĠsaÄŁ": 475,
      "ĠÂ«": 476,
      "Ã¼yor": 477,
      "ken": 478,
      "gi": 479,
      "Ġin": 480,
      "Ä±ndan": 481,
      "Â»": 482,
      "Ã¼Ã§": 483,
      "luk": 484,
      "ÅŁÄ±": 485,
      "larak": 486,
      "ĠBir": 487,
      "ĠsÃ¼r": 488,
      "unda": 489,
      "mes": 490,
      "Ġkur": 491,
      "Ġta": 492,
      "Ã¼y": 493,
      "esi": 494,
      "Ġyar": 495,
      "eni": 496,
      "Ġyok": 497,
      "ĠaÄŁrÄ±sÄ±": 498,
      "ip": 499,
      "Ä±nÄ±n": 500,
      "ĠP": 501,
      "enin": 502,
      "siy": 503,
      "Ġma": 504,
      "Ġkan": 505,
      "uÄŁ": 506,
      "ci": 507,
      "Ġbak": 508,
      "Ġama": 509,
      "Ġist": 510,
      "Ġgerek": 511,
      "elim": 512,
      "op": 513,
      "Ġhis": 514,
      "Ã¼ÄŁ": 515,
      "ĠbÃ¶": 516,
      "Ġolarak": 517,
      "Ġmi": 518,
      "Ġ3": 519,
      "Ġveya": 520,
      "leÅŁ": 521,
      "ece": 522,
      "ÄŁÄ±nÄ±": 523,
      "dum": 524,
      "Ġhak": 525,
      "eÅŁ": 526,
      "Ä±s": 527,
      "Ġak": 528,
      "Ã¼tÃ¼n": 529,
      "unun": 530,
      "Ġkay": 531,
      "ĠÃ¶nce": 532,
      "Ã¼s": 533,
      "ĠsÃ¶z": 534,
      "yan": 535,
      "tÄ±m": 536,
      "Ġile": 537,
      "asÄ±": 538,
      "Åŀ": 539,
      "ili": 540,
      "Ġhaf": 541,
      "Ġdok": 542,
      "Ã¶r": 543,
      "maya": 544,
      "ĠaÃ§": 545,
      "sÄ±z": 546,
      "Ġel": 547,
      "lÄ±ÄŁÄ±": 548,
      "gun": 549,
      "ĠdÃ¼ÅŁÃ¼n": 550,
      "Ġyaz": 551,
      "Ġneden": 552,
      "inden": 553,
      "ten": 554,
      "Ġhasta": 555,
      "ÄŁini": 556,
      "ĠdeÄŁil": 557,
      "Ġkap": 558,
      "Ä±yorum": 559,
      "tur": 560,
      "tor": 561,
      "ĠdoÄŁ": 562,
      "tÃ¼": 563,
      "eli": 564,
      "Ġra": 565,
      "asÄ±nda": 566,
      "man": 567,
      "Ġtara": 568,
      "Ġiy": 569,
      "isi": 570,
      "eme": 571,
      "Ġanla": 572,
      "Ġko": 573,
      "siyon": 574,
      "mas": 575,
      "Ġki": 576,
      "ĠÅŁiÅŁ": 577,
      "Ġinsan": 578,
      "tr": 579,
      "una": 580,
      "...": 581,
      ",,,,": 582,
      "lara": 583,
      "Ġyak": 584,
      "Ġkor": 585,
      "Ġtan": 586,
      "bir": 587,
      "ĠdÃ¼z": 588,
      "ĠhiÃ§": 589,
      "uÃ§": 590,
      "ĠdÃ¶n": 591,
      "ĠsÃ¶yle": 592,
      "iyle": 593,
      "yla": 594,
      "ĠÃ¼z": 595,
      "if": 596,
      "ap": 597,
      "ez": 598,
      "Ġdurum": 599,
      "ĠkÃ¶": 600,
      "eki": 601,
      "muÅŁ": 602,
      "larda": 603,
      "Ġbana": 604,
      "ep": 605,
      "siz": 606,
      "alÄ±ÅŁ": 607,
      "tÄ±k": 608,
      "Ġuz": 609,
      "ĠBen": 610,
      "ĠyÃ¼z": 611,
      "Ġtaraf": 612,
      "arÄ±": 613,
      "ĠAn": 614,
      "larÄ±nÄ±": 615,
      "ĠyÄ±l": 616,
      "Ġev": 617,
      "tu": 618,
      "Ã¼c": 619,
      "Ġiki": 620,
      "ĠbÃ¼y": 621,
      "iyordu": 622,
      "tim": 623,
      "ĠÃ§alÄ±ÅŁ": 624,
      "Ġgen": 625,
      "ĠC": 626,
      "ere": 627,
      "kÄ±": 628,
      "yÄ±m": 629,
      "dÄ±ÄŁÄ±": 630,
      "ullan": 631,
      "ekim": 632,
      "kin": 633,
      "ecek": 634,
      "Ġara": 635,
      "Ġ5": 636,
      "ukuk": 637,
      "aÄŁ": 638,
      "Ġdiye": 639,
      "ĠolduÄŁunu": 640,
      "ĠsÄ±": 641,
      "urg": 642,
      "diÄŁi": 643,
      "Ġder": 644,
      "Ġme": 645,
      "ĠSelim": 646,
      "ÄŁer": 647,
      "dav": 648,
      "lÄ±yor": 649,
      "ĠgÃ¶z": 650,
      "00": 651,
      "Ä±ntÄ±": 652,
      "Ã¼st": 653,
      "ĠÃĩ": 654,
      "ĠmÄ±": 655,
      "Ġkullan": 656,
      "oc": 657,
      "Ġ4": 658,
      "ĠR": 659,
      "ge": 660,
      "ĠyÃ¼k": 661,
      "ĠF": 662,
      "ĠÃĸ": 663,
      "fen": 664,
      "Ġis": 665,
      "fa": 666,
      "ĠÅŀ": 667,
      "iniz": 668,
      "ĠÃ¶l": 669,
      "Ġalt": 670,
      "larÄ±m": 671,
      "tik": 672,
      "ru": 673,
      "Ġedil": 674,
      "ĠÃ¶z": 675,
      "ĠÃ§ek": 676,
      "Ġzor": 677,
      "mel": 678,
      "Ġbulun": 679,
      "bay": 680,
      "eb": 681,
      "Ġolan": 682,
      "Ã§ek": 683,
      "oz": 684,
      "ĠbaÅŁla": 685,
      "han": 686,
      "maz": 687,
      "ab": 688,
      "ĠbÃ¼tÃ¼n": 689,
      "mal": 690,
      "rar": 691,
      "ran": 692,
      "ĠkiÅŁ": 693,
      "ah": 694,
      "Ġl": 695,
      "Ġbelir": 696,
      "ĠmÃ¼": 697,
      "ĠkarÅŁÄ±": 698,
      "arak": 699,
      "Ġtedav": 700,
      "lerin": 701,
      "erek": 702,
      "yun": 703,
      "Ġok": 704,
      "ster": 705,
      "Ġtek": 706,
      "det": 707,
      "lu": 708,
      "ĠyaÅŁÄ±nda": 709,
      "ĠsÄ±k": 710,
      "Ġgit": 711,
      "ĠV": 712,
      "eye": 713,
      "?\",": 714,
      "Ġilg": 715,
      "Ġduy": 716,
      "asyon": 717,
      "ĠgÃ¶rÃ¼n": 718,
      "Ġiyi": 719,
      "ĠÃ¼st": 720,
      "ĠolduÄŁu": 721,
      "let": 722,
      "ĠL": 723,
      "teÅŁ": 724,
      "iyet": 725,
      "ĠNe": 726,
      "mekte": 727,
      "dÃ¼": 728,
      "makta": 729,
      "Ġdo": 730,
      "Ġgir": 731,
      "Ġbeni": 732,
      "Ġhar": 733,
      "lem": 734,
      "Ġpar": 735,
      "Ġkayb": 736,
      "ĠkÄ±": 737,
      "imdi": 738,
      "Ġ6": 739,
      "Ġsev": 740,
      "ĠÅŁek": 741,
      "Ġbile": 742,
      "re": 743,
      "Ġsan": 744,
      "Ġtes": 745,
      "ĠBil": 746,
      "ĠkÄ±z": 747,
      "ĠgerÃ§ek": 748,
      "Ġdoktor": 749,
      "Ġorta": 750,
      "Ġid": 751,
      "sel": 752,
      "Ġmu": 753,
      "ley": 754,
      "malÄ±": 755,
      "lerini": 756,
      "Ġsol": 757,
      "ĠU": 758,
      "ikmet": 759,
      "Ġhem": 760,
      "lÄ±ÄŁ": 761,
      "Ġ-": 762,
      "ĠbaÅŁka": 763,
      "Ġdedi": 764,
      "gÄ±": 765,
      "Ã¶z": 766,
      "dÃ¼r": 767,
      "Ã¼Ã§Ã¼k": 768,
      "ĠdÄ±ÅŁ": 769,
      "ĠgÃ¶ster": 770,
      "lul": 771,
      "Ġbiraz": 772,
      "eket": 773,
      ".Â»": 774,
      "zÄ±": 775,
      "ĠBey": 776,
      "fes": 777,
      "Ġyol": 778,
      "ÄŁr": 779,
      "ĠSon": 780,
      "ĠOn": 781,
      "dik": 782,
      "likte": 783,
      "Ġkendi": 784,
      "Ä±b": 785,
      "ĠHikmet": 786,
      "aÃ§": 787,
      "erha": 788,
      "ĠbÃ¼yÃ¼k": 789,
      "dÄ±k": 790,
      "urgut": 791,
      "ic": 792,
      "mam": 793,
      "os": 794,
      "erhaba": 795,
      "Ġhukuk": 796,
      "asÄ±l": 797,
      "ĠiÃ§inde": 798,
      "ĠTurgut": 799,
      "meye": 800,
      "................................": 801,
      "Ã§a": 802,
      "Ġaz": 803,
      ".\"}": 804,
      "ormal": 805,
      "ĠdeÄŁiÅŁ": 806,
      ".\",": 807,
      "sek": 808,
      "imi": 809,
      "ter": 810,
      "ĠbaÄŁ": 811,
      "ĠÃ¼zer": 812,
      "mektedir": 813,
      "sun": 814,
      "ark": 815,
      "Ġhafta": 816,
      "dÄ±ÄŁÄ±m": 817,
      "Ġhal": 818,
      "nÄ±": 819,
      "ĠsaÄŁlÄ±k": 820,
      "mez": 821,
      "Ġ'": 822,
      "ayÄ±": 823,
      "Ä±rak": 824,
      "ĠÃ§Ä±kar": 825,
      "dÄ±ÄŁÄ±nÄ±": 826,
      "Ġpro": 827,
      "Ġden": 828,
      "Ġes": 829,
      "up": 830,
      "Ġek": 831,
      "Ġtut": 832,
      "ĠAy": 833,
      "Ġtak": 834,
      "ĠsÄ±r": 835,
      "ĠkonuÅŁ": 836,
      "uÄŁu": 837,
      "ĠHer": 838,
      "Ġalbay": 839,
      "dece": 840,
      "diÄŁim": 841,
      "ĠdÃ¼zen": 842,
      "Ġbirlikte": 843,
      "Ġhaya": 844,
      "Ġkes": 845,
      "larÄ±nÄ±n": 846,
      "Ġsah": 847,
      "lÃ¼": 848,
      "Ġser": 849,
      "Ġkol": 850,
      "ilen": 851,
      "ĠkÃ¼Ã§Ã¼k": 852,
      "Ġkim": 853,
      "maktadÄ±r": 854,
      "alan": 855,
      "Ġyet": 856,
      "Ġhareket": 857,
      "hat": 858,
      "ĠbÄ±rak": 859,
      "Ġkab": 860,
      "deki": 861,
      "dam": 862,
      "ile": 863,
      "duÄŁ": 864,
      "Ġiste": 865,
      "Ġbur": 866,
      "ĠyaÅŁa": 867,
      "Ġtop": 868,
      "Ä±bbi": 869,
      "ĠÅŁiÅŁlik": 870,
      "diÅŁ": 871,
      "ĠÃ§oc": 872,
      "ĠgÃ¶re": 873,
      "azla": 874,
      "Ġdev": 875,
      "Ġarka": 876,
      "dur": 877,
      "ĠKar": 878,
      "Ġbek": 879,
      "ari": 880,
      "meliy": 881,
      "ver": 882,
      "va": 883,
      "Ġsorum": 884,
      "Ä±p": 885,
      "Ġyeni": 886,
      "ĠiliÅŁ": 887,
      ".âĢĿ": 888,
      "Ġ8": 889,
      "Ã¼ne": 890,
      "sin": 891,
      "Ġfazla": 892,
      "ĠsuÃ§": 893,
      "Ġkork": 894,
      "Ġkus": 895,
      "Ġas": 896,
      "tif": 897,
      "Ġ10": 898,
      "lardan": 899,
      "ĠkÃ¶tÃ¼": 900,
      "larÄ±na": 901,
      "orgun": 902,
      "elik": 903,
      "Ġer": 904,
      "bilece": 905,
      "ĠarasÄ±nda": 906,
      "set": 907,
      "Ġbas": 908,
      "ĠHas": 909,
      "izi": 910,
      "ĠacÄ±": 911,
      "elen": 912,
      "ĠdoÄŁru": 913,
      "liÄŁi": 914,
      "eÃ§": 915,
      "Ġbenim": 916,
      "Ã¼nde": 917,
      "ĠÄ°n": 918,
      "ĠÃ¶ÄŁr": 919,
      "Ġce": 920,
      "lerde": 921,
      "ĠgeÃ§ir": 922,
      "madan": 923,
      "Ġonu": 924,
      "ĠbÃ¶yle": 925,
      "nÄ±z": 926,
      "Ġ7": 927,
      "rÄ±l": 928,
      "lere": 929,
      "Ã¼ÄŁÃ¼": 930,
      "ĠaÃ§Ä±k": 931,
      "Ġolur": 932,
      "mÄ±ÅŁtÄ±": 933,
      "Ġkend": 934,
      "ĠtaÅŁ": 935,
      "ĠAl": 936,
      "lak": 937,
      "ĠyardÄ±m": 938,
      "Ä±yordu": 939,
      "ĠÃľ": 940,
      "Ġoy": 941,
      "ĠnasÄ±l": 942,
      "af": 943,
      "emi": 944,
      "Ġfark": 945,
      "ĠvardÄ±": 946,
      "ĠteÅŁ": 947,
      "Ġhastan": 948,
      "ize": 949,
      "ĠbÃ¶l": 950,
      "Ġbun": 951,
      "ĠkÄ±s": 952,
      "leme": 953,
      "Ġhafif": 954,
      "Ġilgili": 955,
      "kÃ¼": 956,
      "ram": 957,
      "etir": 958,
      "ed": 959,
      "Ġhekim": 960,
      "ĠSev": 961,
      "olo": 962,
      "usu": 963,
      "kaÃ§": 964,
      "akat": 965,
      "eÄŁ": 966,
      "hal": 967,
      "ÄŁÃ¼s": 968,
      "lardÄ±": 969,
      "Ġotur": 970,
      "rÄ±ca": 971,
      "anÄ±m": 972,
      "sÄ±n": 973,
      "Ġdi": 974,
      "Ġsorun": 975,
      "eksiyon": 976,
      "ĠyÃ¶n": 977,
      "Ġih": 978,
      "ĠaynÄ±": 979,
      "Ġrahat": 980,
      "ĠalbayÄ±m": 981,
      "Merhaba": 982,
      "ĠoluÅŁ": 983,
      "ĠkadÄ±n": 984,
      "daÅŁ": 985,
      "sed": 986,
      "Ġgetir": 987,
      "Ġzar": 988,
      "cu": 989,
      "Ã¶k": 990,
      "eleri": 991,
      "ym": 992,
      "Ġilk": 993,
      "Ã¼tfen": 994,
      "ĠÃ¶zel": 995,
      "ĠdiÅŁ": 996,
      "tal": 997,
      ".)": 998,
      "lÄ±r": 999,
      "ĠI": 1000,
      "Ġtedavi": 1001,
      "eyi": 1002,
      "Ġhiz": 1003,
      "ĠsÃ¶y": 1004,
      "Ġhakk": 1005,
      "Ġ9": 1006,
      "Ġeder": 1007,
      "caÄŁÄ±m": 1008,
      "ilik": 1009,
      "Ġonun": 1010,
      "dÄ±n": 1011,
      "lay": 1012,
      "ĠendiÅŁ": 1013,
      "za": 1014,
      "Ã®": 1015,
      "res": 1016,
      "men": 1017,
      "Ġgid": 1018,
      "larla": 1019,
      "ĠBaÅŁ": 1020,
      "Ġoluyor": 1021,
      "Ġuygun": 1022,
      "Ġancak": 1023,
      "ig": 1024,
      "ĠSaÄŁ": 1025,
      "ĠyapÄ±": 1026,
      "ks": 1027,
      "ist": 1028,
      "Ã¼nÃ¼": 1029,
      "lerim": 1030,
      "Ġsal": 1031,
      "Ġadam": 1032,
      "Ġnefes": 1033,
      "kes": 1034,
      "Ġmes": 1035,
      ").": 1036,
      "uv": 1037,
      "larÄ±nda": 1038,
      "ÅŁa": 1039,
      "Ġdav": 1040,
      "ĠartÄ±k": 1041,
      "ĠÅŁimdi": 1042,
      "ĠKan": 1043,
      "ada": 1044,
      "gu": 1045,
      "ĠateÅŁ": 1046,
      "ĠhiÃ§bir": 1047,
      "ĠSevgi": 1048,
      "Ġetti": 1049,
      "laÅŁÄ±k": 1050,
      "Ġbelirt": 1051,
      "Ġter": 1052,
      "Ã¼rk": 1053,
      "ĠkarÄ±n": 1054,
      "ulan": 1055,
      "Ä±zÄ±": 1056,
      "ĠÅŁekil": 1057,
      "Ġses": 1058,
      "Ġsadece": 1059,
      "01": 1060,
      "ĠsÃ¼re": 1061,
      "Ġsym": 1062,
      "miÅŁti": 1063,
      "Ġolabilir": 1064,
      "Ġkita": 1065,
      "ĠyÃ¼ksek": 1066,
      "ĠbazÄ±": 1067,
      "Ä±nÄ±z": 1068,
      "Ġsymptom": 1069,
      "Ġetk": 1070,
      "hangi": 1071,
      "Ġsin": 1072,
      "ĠgÃ¼l": 1073,
      "ĠmÃ¼da": 1074,
      "medi": 1075,
      "Ġsay": 1076,
      "gÃ¼n": 1077,
      "Ġat": 1078,
      "Ġhisset": 1079,
      "vaÅŁ": 1080,
      "Ġise": 1081,
      "ĠsÃ¶zleÅŁ": 1082,
      "orgunluk": 1083,
      "lÃ¼k": 1084,
      "ĠZ": 1085,
      "Ġsen": 1086,
      "lÄ±ÅŁ": 1087,
      "Ġona": 1088,
      "ĠgÃ¶rev": 1089,
      "Ġhemen": 1090,
      "min": 1091,
      "ekk": 1092,
      "ĠsÄ±ra": 1093,
      "Ã§e": 1094,
      "Ġbit": 1095,
      "Ä±sÄ±": 1096,
      "Ġhep": 1097,
      "Ġres": 1098,
      "ĠÃ§ocuk": 1099,
      "Ġiz": 1100,
      "Ġede": 1101,
      "cek": 1102,
      "na": 1103,
      "Ġboyun": 1104,
      "ĠBilge": 1105,
      "ksÃ¼r": 1106,
      "feksiyon": 1107,
      "art": 1108,
      "miÅŁtir": 1109,
      "),": 1110,
      "lam": 1111,
      "Ġsaat": 1112,
      "Ġbenz": 1113,
      "br": 1114,
      "umu": 1115,
      "Ġmer": 1116,
      "Ġboz": 1117,
      ",Â»": 1118,
      "ĠtÄ±bbi": 1119,
      "Ġyapa": 1120,
      "likle": 1121,
      "Ġsorumlul": 1122,
      "'d": 1123,
      "tar": 1124,
      "Ġdin": 1125,
      "Ġyal": 1126,
      "Ġac": 1127,
      "ĠyÃ¼r": 1128,
      "ele": 1129,
      "Ġhissed": 1130,
      "ĠarkadaÅŁ": 1131,
      "ileri": 1132,
      "uda": 1133,
      "uma": 1134,
      "ĠalÄ±n": 1135,
      "iyim": 1136,
      "Ġboy": 1137,
      "madÄ±": 1138,
      "Ġye": 1139,
      "ĠÅŁekilde": 1140,
      "Ġbunun": 1141,
      "anÄ±n": 1142,
      "ĠÃ¶ÄŁren": 1143,
      "lÄ±m": 1144,
      "Ġnormal": 1145,
      "arih": 1146,
      "ot": 1147,
      "ĠDa": 1148,
      "Ġhizmet": 1149,
      "ĠolmasÄ±": 1150,
      "unuz": 1151,
      "Ġdavran": 1152,
      "ye": 1153,
      "Ġayak": 1154,
      "tÃ¼r": 1155,
      "ĠbirkaÃ§": 1156,
      "iyordum": 1157,
      "anÄ±": 1158,
      "lerinin": 1159,
      "Ġolmak": 1160,
      "nin": 1161,
      "ĠÃ§ev": 1162,
      "ven": 1163,
      "ĠgÃ¼Ã§": 1164,
      "layÄ±": 1165,
      "Ã¼nkÃ¼": 1166,
      "ĠilaÃ§": 1167,
      "ede": 1168,
      "tak": 1169,
      "ĠtÃ¼r": 1170,
      "ĠBÃ¼tÃ¼n": 1171,
      "ciÄŁer": 1172,
      "masÄ±nÄ±": 1173,
      "ĠkÄ±sm": 1174,
      "ĠÃ¶nem": 1175,
      "tin": 1176,
      "ĠkaÃ§": 1177,
      "ydÄ±": 1178,
      "ĠKen": 1179,
      "mem": 1180,
      "lerine": 1181,
      "Ġad": 1182,
      "Ġkoy": 1183,
      "ĠyalnÄ±z": 1184,
      "aret": 1185,
      "meden": 1186,
      "ret": 1187,
      "esinde": 1188,
      "ĠBel": 1189,
      "ĠSaÄŁlÄ±k": 1190,
      "ser": 1191,
      "vet": 1192,
      "ĠgÃ¶ÄŁÃ¼s": 1193,
      "Ġseb": 1194,
      "ĠsayÄ±": 1195,
      "iddet": 1196,
      "Ġuzun": 1197,
      "ĠkaybÄ±": 1198,
      "Ġkurul": 1199,
      "lum": 1200,
      "ĠkarÄ±ÅŁ": 1201,
      "Ġtekrar": 1202,
      "Ãľ": 1203,
      "Ġhissi": 1204,
      "10": 1205,
      "aya": 1206,
      "ĠÃ§Ä±ktÄ±": 1207,
      "Ġsp": 1208,
      "ĠhÃ¢": 1209,
      "daki": 1210,
      "ĠTÃ¼rk": 1211,
      "ĠaltÄ±nda": 1212,
      "ĠkÄ±r": 1213,
      "Ġherhangi": 1214,
      "Ġmide": 1215,
      "ĠsÃ¶yledi": 1216,
      "eh": 1217,
      "Ġenfeksiyon": 1218,
      "ene": 1219,
      "Ġyara": 1220,
      "Ġetmek": 1221,
      "mÃ¼ÅŁ": 1222,
      "Ġbe": 1223,
      "ĠÃ§ar": 1224,
      "Ġ19": 1225,
      "ĠOl": 1226,
      "sÄ±zlÄ±k": 1227,
      "ji": 1228,
      "Ġbiz": 1229,
      "meli": 1230,
      "ĠaÄŁÄ±r": 1231,
      "Ġkana": 1232,
      "ĠdÃ¼n": 1233,
      "Ġdevam": 1234,
      "Ġalan": 1235,
      "undan": 1236,
      "ĠyaptÄ±": 1237,
      "Ġgece": 1238,
      "Ã¼ÄŁÃ¼m": 1239,
      "Ġtem": 1240,
      "Ġkabul": 1241,
      "ĠdiÄŁer": 1242,
      "gan": 1243,
      "miyor": 1244,
      "Ã¼p": 1245,
      "asÄ±na": 1246,
      "der": 1247,
      "ĠÅŁu": 1248,
      "ĠbaÅŁladÄ±": 1249,
      "ĠDok": 1250,
      "ĠÄ°nsan": 1251,
      "ĠdeÄŁer": 1252,
      "ĠHasta": 1253,
      "):": 1254,
      "Ġifa": 1255,
      "ĠAÄŁ": 1256,
      "Ġkarar": 1257,
      "Ġzarar": 1258,
      "ekkÃ¼r": 1259,
      "ĠÃ¼Ã§": 1260,
      "Ġyum": 1261,
      "bah": 1262,
      "diler": 1263,
      "Ġkam": 1264,
      "ĠHekim": 1265,
      "Ġkusur": 1266,
      "Ġortaya": 1267,
      "ĠÃ¶ksÃ¼r": 1268,
      "ĠAr": 1269,
      "ayÄ±r": 1270,
      "Ġtest": 1271,
      "gen": 1272,
      "suz": 1273,
      "antÄ±": 1274,
      "Ġmad": 1275,
      "ÄŁa": 1276,
      "tÄ±ÅŁ": 1277,
      "Ã¼zel": 1278,
      "ekli": 1279,
      "mÄ±ÅŁtÄ±r": 1280,
      "ĠboÅŁ": 1281,
      "sam": 1282,
      "Ġveril": 1283,
      "ne": 1284,
      "dimi": 1285,
      "bet": 1286,
      "Ġkez": 1287,
      "uyordu": 1288,
      "Ġkitap": 1289,
      "acak": 1290,
      "nak": 1291,
      "uyorum": 1292,
      "ĠyakÄ±n": 1293,
      "ĠyapÄ±l": 1294,
      "tÄ±l": 1295,
      "Ġkalp": 1296,
      "kan": 1297,
      "Ġkav": 1298,
      "Ä±mÄ±": 1299,
      "ĠÄ°ÅŁ": 1300,
      "mesini": 1301,
      "ĠSonra": 1302,
      "sik": 1303,
      "mayÄ±": 1304,
      "Ġoda": 1305,
      "Ġbunu": 1306,
      "ber": 1307,
      "tiy": 1308,
      "Ġfi": 1309,
      "ĠtarafÄ±ndan": 1310,
      "Ġtab": 1311,
      "leÅŁtir": 1312,
      "av": 1313,
      "?Â»": 1314,
      "caÄŁÄ±": 1315,
      "ĠtÃ¼m": 1316,
      "ĠtanÄ±": 1317,
      "Ġboyunca": 1318,
      "ĠdeÄŁiÅŁik": 1319,
      "dÃ¼m": 1320,
      "Ġsu": 1321,
      "Ġkonus": 1322,
      "ĠgÃ¼": 1323,
      "Ġistiyorum": 1324,
      "ĠAyrÄ±ca": 1325,
      "Ä±klÄ±k": 1326,
      "mi": 1327,
      "ĠbakÄ±m": 1328,
      "Ġanda": 1329,
      "miyorum": 1330,
      "Ġkr": 1331,
      "ĠgÃ¶rÃ¼l": 1332,
      "ama": 1333,
      "gÄ±n": 1334,
      "Ġoyun": 1335,
      "Ġdik": 1336,
      "ĠÃ¶ner": 1337,
      "Ġtah": 1338,
      "Ġkontr": 1339,
      "iddetli": 1340,
      "Ġim": 1341,
      "Ġbah": 1342,
      "ĠHak": 1343,
      "Ġgeri": 1344,
      "imin": 1345,
      "imde": 1346,
      "oÄŁuk": 1347,
      "ĠgeliÅŁ": 1348,
      "oy": 1349,
      "Ġifade": 1350,
      "Ġtam": 1351,
      "Ġre": 1352,
      "ĠâĢ¢": 1353,
      "ĠyaÅŁÄ±ndayÄ±m": 1354,
      "Ġameliy": 1355,
      "dÄ±rÄ±": 1356,
      "yaz": 1357,
      "ĠuÄŁ": 1358,
      "Ġolacak": 1359,
      "ni": 1360,
      "uh": 1361,
      "Ã¼nden": 1362,
      "lÄ±yorum": 1363,
      "ali": 1364,
      "fendim": 1365,
      "ĠyavaÅŁ": 1366,
      "larÄ±ndan": 1367,
      "Ġkalk": 1368,
      "Ġtav": 1369,
      "ĠhastalÄ±k": 1370,
      "Ġanlat": 1371,
      "Ġberi": 1372,
      "ĠeÄŁ": 1373,
      "Ġnedeniyle": 1374,
      "lerle": 1375,
      "Ġkah": 1376,
      "meyen": 1377,
      "Ġanti": 1378,
      "Ġren": 1379,
      "ĠkaÅŁ": 1380,
      "ĠsonuÃ§": 1381,
      "ĠdÃ¶k": 1382,
      "ileÅŁ": 1383,
      "ladÄ±": 1384,
      "Ġhast": 1385,
      "ĠEn": 1386,
      "ĠkapÄ±": 1387,
      "rak": 1388,
      "ĠÃ¼zerinde": 1389,
      "oÅŁ": 1390,
      "ÄŁe": 1391,
      "ĠâĢĺ": 1392,
      "Ġediyor": 1393,
      "Ġanlam": 1394,
      "Ġzorluk": 1395,
      "Ġoku": 1396,
      "ĠiliÅŁk": 1397,
      "Ġper": 1398,
      "ac": 1399,
      "sas": 1400,
      "ui": 1401,
      "Ã¼yorum": 1402,
      "ĠvÃ¼c": 1403,
      "Ġolup": 1404,
      "ĠeÅŁ": 1405,
      "Ġgene": 1406,
      "Ġunu": 1407,
      "ĠhÃ¼c": 1408,
      "emin": 1409,
      "Ġham": 1410,
      "ĠuyuÅŁ": 1411,
      "masÄ±na": 1412,
      "ĠhÃ¢l": 1413,
      "ĠaÅŁa": 1414,
      "Ġzamanda": 1415,
      "Ã¼yordu": 1416,
      "ilerin": 1417,
      "Ġsar": 1418,
      "Ġap": 1419,
      "diÄŁini": 1420,
      "Ġhissediyorum": 1421,
      "lÃ¼l": 1422,
      "ĠÃ¶yle": 1423,
      "Ġsok": 1424,
      "Ġkontrol": 1425,
      "Ã¼me": 1426,
      "ÄŁin": 1427,
      "Ġku": 1428,
      "Ġalma": 1429,
      "idir": 1430,
      "Ã¶yle": 1431,
      "ĠyaklaÅŁÄ±k": 1432,
      "ĠhakkÄ±nda": 1433,
      "say": 1434,
      "ĠgÃ¼zel": 1435,
      "ĠhÃ¼k": 1436,
      "Ġihtiy": 1437,
      "lerden": 1438,
      "Ġidar": 1439,
      "Ġdis": 1440,
      "Ġbirden": 1441,
      "ayÄ±f": 1442,
      "brek": 1443,
      "tÄ±yor": 1444,
      "duÄŁu": 1445,
      "ĠhastanÄ±n": 1446,
      "ER": 1447,
      "ĠHukuk": 1448,
      "Ġdar": 1449,
      "ad": 1450,
      "Ġmey": 1451,
      "Ġidrar": 1452,
      "ĠDoktor": 1453,
      "mÄ±zÄ±": 1454,
      "ĠÅŀimdi": 1455,
      "ucu": 1456,
      "Ġgenel": 1457,
      "Ġhayat": 1458,
      "19": 1459,
      "tion": 1460,
      "ĠlÃ¼tfen": 1461,
      "iv": 1462,
      "Ġadet": 1463,
      "Ġbilg": 1464,
      "ĠFakat": 1465,
      "orum": 1466,
      "ĠsaÃ§": 1467,
      "erede": 1468,
      "ĠbÃ¶lg": 1469,
      "Ġkamu": 1470,
      "Ġsey": 1471,
      "Ä±za": 1472,
      "ĠGÃ¼n": 1473,
      "Ġgerekti": 1474,
      "ĠDaha": 1475,
      "Ġmis": 1476,
      "Ġnok": 1477,
      "Ġsiz": 1478,
      "lat": 1479,
      "lacak": 1480,
      "ĠyÃ¼kÃ¼m": 1481,
      "Ġsinir": 1482,
      "ĠdavranÄ±ÅŁ": 1483,
      "mÄ±yor": 1484,
      "Ġkil": 1485,
      "Ġtarih": 1486,
      "Ġbacak": 1487,
      "ĠuÄŁra": 1488,
      "gin": 1489,
      "kÃ¼n": 1490,
      "ve": 1491,
      "laya": 1492,
      "ĠÃ¶r": 1493,
      "Ġsabah": 1494,
      "biy": 1495,
      "yi": 1496,
      "Ġsert": 1497,
      "ĠyÃ¼zden": 1498,
      "Ġdil": 1499,
      "Ġkat": 1500,
      "Ġkendimi": 1501,
      "alÄ±m": 1502,
      "ĠdolaÅŁ": 1503,
      "Ġkara": 1504,
      "ĠBana": 1505,
      "ĠgÃ¶rme": 1506,
      "ri": 1507,
      "ika": 1508,
      "ĠÃ§iz": 1509,
      "raf": 1510,
      "ĠKur": 1511,
      "meyi": 1512,
      "uvar": 1513,
      "ebilir": 1514,
      "Ġbey": 1515,
      "Ġgec": 1516,
      "caÄŁÄ±nÄ±": 1517,
      "Ãĩ": 1518,
      "Ġir": 1519,
      "hale": 1520,
      "sen": 1521,
      "ĠyaptÄ±r": 1522,
      "ga": 1523,
      "__": 1524,
      "ĠolmadÄ±ÄŁÄ±nÄ±": 1525,
      "Ġkendini": 1526,
      "lerinde": 1527,
      "ĠoÄŁ": 1528,
      "lanma": 1529,
      "atÄ±": 1530,
      "Ġdol": 1531,
      "est": 1532,
      "lendir": 1533,
      "mesine": 1534,
      "eÅŁit": 1535,
      "Ġom": 1536,
      "Ġdayan": 1537,
      "lek": 1538,
      "luÄŁu": 1539,
      "sine": 1540,
      "zen": 1541,
      "Ġhaz": 1542,
      "ĠhÄ±z": 1543,
      "Ġetme": 1544,
      "Ġyerine": 1545,
      "ĠteÅŁh": 1546,
      "etin": 1547,
      "Ġkims": 1548,
      "Ġfiil": 1549,
      "ĠÃ§Ã¼nkÃ¼": 1550,
      "Ġnit": 1551,
      "Ġolduk": 1552,
      "Ġgelen": 1553,
      "ĠdÄ±ÅŁÄ±nda": 1554,
      "ĠsÄ±rt": 1555,
      "ef": 1556,
      "lÃ¼ÄŁÃ¼": 1557,
      "ĠdolayÄ±": 1558,
      "Ġof": 1559,
      "lamak": 1560,
      "ete": 1561,
      "ÄŁÄ±n": 1562,
      "Ġbiri": 1563,
      "ÅŁÄ±rÄ±": 1564,
      "ĠyazÄ±": 1565,
      "alanma": 1566,
      "Ġerk": 1567,
      "Ġsek": 1568,
      "ĠyanÄ±nda": 1569,
      "ĠsÄ±nÄ±": 1570,
      "ĠBur": 1571,
      "Ġolay": 1572,
      "ilt": 1573,
      "ĠBaz": 1574,
      "Ġuyan": 1575,
      "din": 1576,
      "Ġmiyim": 1577,
      "ĠhatÄ±r": 1578,
      "ĠÃ¼zerine": 1579,
      "Ġsak": 1580,
      "lerinden": 1581,
      "tÄ±ÄŁÄ±": 1582,
      "Ġeden": 1583,
      "Ġhap": 1584,
      "Ġgeliyor": 1585,
      "ĠÃ¶nemli": 1586,
      "Ġkom": 1587,
      "asÄ±nÄ±n": 1588,
      "ĠÄ°l": 1589,
      "Ġherkes": 1590,
      "Ġdiy": 1591,
      "ĠÄ°d": 1592,
      "ĠdÃ¼ÅŁÃ¼k": 1593,
      "Ġinc": 1594,
      "Ġhukuka": 1595,
      "emiyorum": 1596,
      "ĠÃĩok": 1597,
      "ĠBunun": 1598,
      "ĠOr": 1599,
      "ĠsÃ¼rekli": 1600,
      "Ġkaynak": 1601,
      "ĠdÃ¶nmesi": 1602,
      "Ġbeyaz": 1603,
      "ĠrÄ±": 1604,
      "Ġbirbir": 1605,
      "ĠSer": 1606,
      "Ġyoktu": 1607,
      "ince": 1608,
      "Ġkas": 1609,
      "ĠzayÄ±f": 1610,
      "ĠÃ¶nc": 1611,
      "Ġyarar": 1612,
      "AN": 1613,
      "son": 1614,
      "sta": 1615,
      "Ġdemek": 1616,
      "ĠHanÄ±m": 1617,
      "ĠEr": 1618,
      "Ġcan": 1619,
      "ĠtaÅŁÄ±": 1620,
      "ĠdeÄŁiÅŁiklik": 1621,
      "sunuz": 1622,
      "Ġsig": 1623,
      "ilmesi": 1624,
      "Ġhey": 1625,
      "lanan": 1626,
      "itr": 1627,
      "ĠBenim": 1628,
      "12": 1629,
      "Ġ12": 1630,
      "Ġyemek": 1631,
      "bilecek": 1632,
      "Ġuyk": 1633,
      "Ġtamam": 1634,
      "ĠendiÅŁelen": 1635,
      "ĠgenÃ§": 1636,
      "Ä±mda": 1637,
      "ĠiÅŁte": 1638,
      "Ġazal": 1639,
      "Ġolmayan": 1640,
      "ĠÃ§arp": 1641,
      "aj": 1642,
      "imiz": 1643,
      "ĠBeni": 1644,
      "Ġettim": 1645,
      "ĠkiÅŁinin": 1646,
      "luÄŁ": 1647,
      "Ġpen": 1648,
      "ĠgeÃ§en": 1649,
      "Ġbelki": 1650,
      "Ã¶rt": 1651,
      "manÄ±n": 1652,
      "Ġdurumda": 1653,
      "Ġhalde": 1654,
      "Ġyorgunluk": 1655,
      "Ġ200": 1656,
      "ĠiyileÅŁ": 1657,
      "Ġeski": 1658,
      "ĠkÄ±rmÄ±zÄ±": 1659,
      "ric": 1660,
      "ĠmÃ¼m": 1661,
      "ĠJ": 1662,
      "ĠsoÄŁuk": 1663,
      "Ġgeldi": 1664,
      "Ġyere": 1665,
      "kÄ±rÄ±": 1666,
      "ĠgÃ¶rÃ¼nÃ¼yor": 1667,
      "ĠUy": 1668,
      "ĠtÃ¼rlÃ¼": 1669,
      "ob": 1670,
      "og": 1671,
      "Ġkaz": 1672,
      "Ġunut": 1673,
      "Ġmak": 1674,
      "ĠÃ¼l": 1675,
      "iyi": 1676,
      "Ġbilin": 1677,
      "Ġolmaz": 1678,
      "ĠÅŁeyi": 1679,
      "Ġdiz": 1680,
      "Ã§ok": 1681,
      "asÄ±nÄ±": 1682,
      "Ä±mÄ±n": 1683,
      "isinin": 1684,
      "ĠÃ¶lÃ¼m": 1685,
      "be": 1686,
      "Ġefendim": 1687,
      "Ġolabilece": 1688,
      "ĠsÃ¶ylen": 1689,
      "ĠaÅŁaÄŁÄ±": 1690,
      "hi": 1691,
      "ildi": 1692,
      "ĠSen": 1693,
      "ĠÅŁiddetli": 1694,
      "Ä±rs": 1695,
      "sizlik": 1696,
      "ĠBelki": 1697,
      "Ġkonusunda": 1698,
      "nÄ±n": 1699,
      "orm": 1700,
      "Ã¼sÃ¼": 1701,
      "ĠÃ¼zere": 1702,
      "ĠgerÃ§ekten": 1703,
      ",âĢĿ": 1704,
      "Ben": 1705,
      "Ġbin": 1706,
      "Ġhan": 1707,
      "Ġinan": 1708,
      "Ġmadde": 1709,
      "Ġtar": 1710,
      "ĠolmuÅŁ": 1711,
      "Ġdak": 1712,
      "Ġik": 1713,
      "Ġkaf": 1714,
      "Ġman": 1715,
      "ĠHiÃ§": 1716,
      "Ġyoksa": 1717,
      "Ġister": 1718,
      "ĠyÄ±ldÄ±r": 1719,
      "ĠmÃ¼mkÃ¼n": 1720,
      "Ġkem": 1721,
      "oÄŁaz": 1722,
      "ĠgÃ¼ven": 1723,
      "Bir": 1724,
      "ĠbaÄŁlÄ±": 1725,
      "gel": 1726,
      "ita": 1727,
      "ĠÄ±ÅŁ": 1728,
      "Ġfil": 1729,
      "lamaz": 1730,
      "Ġun": 1731,
      "ÄŁimi": 1732,
      "ĠkoÅŁ": 1733,
      "lÄ±ÄŁÄ±n": 1734,
      "Ġnokta": 1735,
      "ÄŁÄ±nda": 1736,
      "ÄŁinde": 1737,
      "ekÃ¢": 1738,
      "lah": 1739,
      "labilir": 1740,
      "ĠSa": 1741,
      "Ä±ldÄ±": 1742,
      "ĠkaldÄ±": 1743,
      "ĠyanlÄ±ÅŁ": 1744,
      "ĠOlric": 1745,
      "sÄ±na": 1746,
      "ĠiÃ§er": 1747,
      "Ġmem": 1748,
      "ĠyÃ¼kÃ¼mlÃ¼l": 1749,
      "ici": 1750,
      "ÄŁine": 1751,
      "Ġark": 1752,
      "Ġ20": 1753,
      "Ã¢ÄŁÄ±": 1754,
      "Ġyerde": 1755,
      "Ġgitti": 1756,
      "ĠLÃ¼tfen": 1757,
      "lÄ±nda": 1758,
      "ĠEl": 1759,
      "ĠÃĸz": 1760,
      "................................................................": 1761,
      "ĠkaÅŁÄ±ntÄ±": 1762,
      "ub": 1763,
      "onk": 1764,
      "ĠkaldÄ±r": 1765,
      "ramp": 1766,
      "Ġann": 1767,
      "Ġsahip": 1768,
      "Ġrenk": 1769,
      "Ġsebep": 1770,
      "Ġ.": 1771,
      "Ä±nca": 1772,
      "ĠAncak": 1773,
      "ĠbiÃ§": 1774,
      "lardÄ±r": 1775,
      "Ġot": 1776,
      "ĠhastasÄ±": 1777,
      "ĠÃĸn": 1778,
      "Ġyeniden": 1779,
      "ĠkuruluÅŁ": 1780,
      "tum": 1781,
      "uya": 1782,
      "Ġyas": 1783,
      "lÄ±ÄŁÄ±nÄ±": 1784,
      "Ġmut": 1785,
      "Ġpek": 1786,
      "Ġtesti": 1787,
      "cer": 1788,
      "menin": 1789,
      "sit": 1790,
      "Ġmor": 1791,
      "ĠdÃ¼ÅŁÃ¼nc": 1792,
      "ĠfarklÄ±": 1793,
      "Ġkanama": 1794,
      "ĠhazÄ±r": 1795,
      "ĠtÄ±k": 1796,
      "Ġbazen": 1797,
      "ĠanlaÅŁ": 1798,
      "Ġfa": 1799,
      "lÃ¼ÄŁ": 1800,
      "rÄ±m": 1801,
      "madÄ±m": 1802,
      "ĠaÅŁÄ±rÄ±": 1803,
      "tÄ±rÄ±": 1804,
      "Ġmik": 1805,
      "ĠSiz": 1806,
      "Ġsahi": 1807,
      "rom": 1808,
      "ĠayrÄ±ca": 1809,
      "ĠonlarÄ±": 1810,
      "Ġgerekir": 1811,
      "Bu": 1812,
      "yse": 1813,
      "emez": 1814,
      "ĠNeden": 1815,
      "ĠkÄ±sa": 1816,
      "ysa": 1817,
      "Ã¼nÃ¼n": 1818,
      "ĠÃ§eÅŁit": 1819,
      "Ġnerede": 1820,
      "Ġtemel": 1821,
      "ĠsÃ¶yl": 1822,
      "Ġmeydan": 1823,
      "ren": 1824,
      "Ġle": 1825,
      "Ġmg": 1826,
      "ĠgÃ¼nde": 1827,
      "ĠmÃ¼dahale": 1828,
      "ĠÄ±s": 1829,
      "Ġbor": 1830,
      "ÄŁmen": 1831,
      "mayan": 1832,
      "esine": 1833,
      "ĠaÄŁrÄ±larÄ±": 1834,
      "Ä±yordum": 1835,
      "Ġediyorum": 1836,
      "ĠyapÄ±lan": 1837,
      "sal": 1838,
      "uc": 1839,
      "ĠaykÄ±rÄ±": 1840,
      "elerin": 1841,
      "uyla": 1842,
      "ĠBiz": 1843,
      "ukluk": 1844,
      "Ġsonr": 1845,
      "ĠgÃ¶revl": 1846,
      "Ġdal": 1847,
      "isel": 1848,
      "Ġbab": 1849,
      "Ä±ntÄ±sÄ±": 1850,
      "Ġederim": 1851,
      "ĠmÃ¼dahal": 1852,
      "ĠAÄŁrÄ±": 1853,
      "kat": 1854,
      "ĠbÃ¶brek": 1855,
      "ĠrahatsÄ±z": 1856,
      "ĠbakÄ±mÄ±ndan": 1857,
      "layan": 1858,
      "Ġyapar": 1859,
      "ĠbulantÄ±": 1860,
      "Ġdokun": 1861,
      "Ġuzak": 1862,
      "ĠkiÅŁi": 1863,
      "Ġameliyat": 1864,
      "AR": 1865,
      "ilin": 1866,
      "Ġgaz": 1867,
      "tÄ±ÄŁÄ±m": 1868,
      "Ġcid": 1869,
      "Ġbelli": 1870,
      "Ġyani": 1871,
      "?âĢĿ": 1872,
      "jen": 1873,
      "jik": 1874,
      "ĠdÃ¶rt": 1875,
      "ĠKim": 1876,
      "ĠhakkÄ±": 1877,
      "bÄ±": 1878,
      "Ġkeli": 1879,
      "ĠÃ§a": 1880,
      "iyorlar": 1881,
      "ĠaÄŁrÄ±yor": 1882,
      "ĠgÃ¶n": 1883,
      "Ġart": 1884,
      "ĠÄ°Ã§": 1885,
      "Ġ201": 1886,
      "Ġkonusu": 1887,
      "Ġkusma": 1888,
      "mÄ±yorum": 1889,
      "ĠAs": 1890,
      "malÄ±yÄ±m": 1891,
      "Ġhekimin": 1892,
      "ĠÃ¶ksÃ¼rÃ¼k": 1893,
      "Ġsenin": 1894,
      "iydi": 1895,
      "Ġhala": 1896,
      "Ġuygu": 1897,
      "ĠÅŁeyler": 1898,
      "Ġmuh": 1899,
      "ĠsÄ±rasÄ±nda": 1900,
      "ĠkÄ±smÄ±nda": 1901,
      "siniz": 1902,
      "Ġsist": 1903,
      "tiv": 1904,
      "Ġ15": 1905,
      "ecan": 1906,
      "ĠsÃ¶yley": 1907,
      "SA": 1908,
      "he": 1909,
      "ĠÃ¼r": 1910,
      "Ġfakat": 1911,
      "sem": 1912,
      "Ä±lan": 1913,
      "ÄŁinden": 1914,
      "ĠbugÃ¼n": 1915,
      "ĠtanÄ±m": 1916,
      "ekÃ¢let": 1917,
      "ME": 1918,
      "kÃ¢": 1919,
      "of": 1920,
      "sini": 1921,
      "ÅŁam": 1922,
      "Ġhassas": 1923,
      "Ġkimse": 1924,
      "ĠdÃ¼nya": 1925,
      "Ãĸ": 1926,
      "lerdi": 1927,
      "uldu": 1928,
      "Ġruh": 1929,
      "ĠÃ¼stÃ¼ne": 1930,
      "gÃ¶r": 1931,
      "Ġhip": 1932,
      "deÅŁ": 1933,
      "ĠSÃ¶z": 1934,
      "larÄ±yla": 1935,
      "ĠTÄ±bbi": 1936,
      "Ġkural": 1937,
      "ĠyardÄ±mcÄ±": 1938,
      "Ġmerak": 1939,
      "Ġ:": 1940,
      "Ġyay": 1941,
      "ĠDr": 1942,
      "Ġsonunda": 1943,
      "ĠvardÄ±r": 1944,
      "lenme": 1945,
      "sey": 1946,
      "Ġhay": 1947,
      "esini": 1948,
      "ĠaydÄ±n": 1949,
      "ĠMetin": 1950,
      "Ġverdi": 1951,
      "mettin": 1952,
      "pa": 1953,
      "Ä±ma": 1954,
      "erli": 1955,
      "ĠTeÅŁ": 1956,
      "Ġ%": 1957,
      "indeki": 1958,
      "umda": 1959,
      "Ã¼ntÃ¼": 1960,
      "ĠAk": 1961,
      "ĠKas": 1962,
      "oÄŁun": 1963,
      "Ġzorunda": 1964,
      "ĠhÃ¼cr": 1965,
      "bar": 1966,
      "sÄ±nda": 1967,
      "Ã¼sa": 1968,
      "Ã¼ley": 1969,
      "mamÄ±ÅŁ": 1970,
      "ĠsÄ±v": 1971,
      "acÄ±": 1972,
      "ÄŁs": 1973,
      "Ä±rt": 1974,
      "ĠÅŁekl": 1975,
      "Ġkemi": 1976,
      "ĠgÃ¶rÃ¼ÅŁ": 1977,
      "ĠGÃ¶z": 1978,
      "Ġsanki": 1979,
      "ĠkaraciÄŁer": 1980,
      "11": 1981,
      "20": 1982,
      "ĠkÃ¢ÄŁÄ±": 1983,
      "Ġkorun": 1984,
      "ĠÃ¶lÃ§": 1985,
      "Ġhayal": 1986,
      "ĠgÃ¼lÃ¼m": 1987,
      "Ġhamile": 1988,
      "ĠGen": 1989,
      "Ġmah": 1990,
      "Ġkanser": 1991,
      "ĠraÄŁmen": 1992,
      "ĠSorum": 1993,
      "Ġileri": 1994,
      "Ġdurumu": 1995,
      "ĠtarafÄ±nda": 1996,
      "ĠVe": 1997,
      "eÄŁen": 1998,
      "Ġvaz": 1999,
      "Ġtat": 2000,
      "Ġgerekli": 2001,
      "Ġgittim": 2002,
      "ĠHastan": 2003,
      "mar": 2004,
      "Ġtu": 2005,
      "alnÄ±z": 2006,
      "ĠAteÅŁ": 2007,
      "Ä°N": 2008,
      "ĠayrÄ±": 2009,
      ",,,,,": 2010,
      "kinci": 2011,
      "Ã¼leyman": 2012,
      "ĠalÄ±ÅŁ": 2013,
      "ĠYorgunluk": 2014,
      "ĠdeÄŁiÅŁtir": 2015,
      "ĠsorunlarÄ±": 2016,
      "Ġmeydana": 2017,
      "tuk": 2018,
      "anlÄ±k": 2019,
      "Ġkok": 2020,
      "ĠÃ§Ã¶z": 2021,
      "ĠgÃ¶tÃ¼r": 2022,
      "Ġorgan": 2023,
      "ĠsÄ±rada": 2024,
      "inal": 2025,
      "ÄŁinin": 2026,
      "Ġkramp": 2027,
      "Ġmen": 2028,
      "Ã¼ksek": 2029,
      "maktan": 2030,
      "Ġtabi": 2031,
      "luluk": 2032,
      "Ġoyn": 2033,
      "Ã¼samettin": 2034,
      "Ġla": 2035,
      "merhaba": 2036,
      "Ġsana": 2037,
      "ĠdeÄŁildir": 2038,
      "ide": 2039,
      "seri": 2040,
      "Ġhes": 2041,
      "ĠHayÄ±r": 2042,
      "ĠYak": 2043,
      "ĠOysa": 2044,
      "ĠsÄ±cak": 2045,
      "Ġmev": 2046,
      "ĠsÄ±kÄ±ÅŁ": 2047,
      "resyon": 2048,
      "Ġgider": 2049,
      "Ġbitir": 2050,
      "ĠHekimin": 2051,
      "Ġsigara": 2052,
      "por": 2053,
      "siye": 2054,
      "arma": 2055,
      "madÄ±ÄŁÄ±": 2056,
      "aten": 2057,
      "Ġdoku": 2058,
      "ĠkarÅŁÄ±lÄ±k": 2059,
      "ĠÃľni": 2060,
      "Ġaya": 2061,
      "Ġ13": 2062,
      "ĠÃ¶ldÃ¼r": 2063,
      "ĠHerkes": 2064,
      "Ġdakika": 2065,
      ".,": 2066,
      "Ġseni": 2067,
      "umuz": 2068,
      "etik": 2069,
      "ĠSÃ¼leyman": 2070,
      "Ġpara": 2071,
      "ĠaldÄ±m": 2072,
      "Ġcilt": 2073,
      "ĠsÃ¶ylÃ¼yor": 2074,
      "vur": 2075,
      "lemek": 2076,
      "yacak": 2077,
      "ĠHÃ¼samettin": 2078,
      "ĠKal": 2079,
      "oman": 2080,
      "Ġbilir": 2081,
      "ĠyaÅŁam": 2082,
      "ĠolmalÄ±": 2083,
      "ĠsÃ¶zleÅŁme": 2084,
      "ĠdarlÄ±ÄŁÄ±": 2085,
      "ĠoÄŁlum": 2086,
      "Ġerkek": 2087,
      "calanma": 2088,
      "ron": 2089,
      "Ġsur": 2090,
      "Ã¼nc": 2091,
      "Ġ14": 2092,
      "Ġtansiyon": 2093,
      "od": 2094,
      "enÃ¼z": 2095,
      "Ġgar": 2096,
      "ĠKa": 2097,
      "ĠyaÅŁÄ±yorum": 2098,
      "ĠEs": 2099,
      "ĠEv": 2100,
      "mayacak": 2101,
      "Ġderece": 2102,
      "oloji": 2103,
      "Ġtemiz": 2104,
      "ekkÃ¼rler": 2105,
      "tem": 2106,
      "ĠbeÅŁ": 2107,
      "Ġsemptom": 2108,
      "ĠbirÃ§ok": 2109,
      "ast": 2110,
      "ĠcanÄ±m": 2111,
      "Ġgereken": 2112,
      "urken": 2113,
      "ĠHa": 2114,
      "ĠDur": 2115,
      "ĠDÃ¼ÅŁ": 2116,
      "Ġuyg": 2117,
      "ĠdoÄŁr": 2118,
      "Ġkilo": 2119,
      "ĠgÃ¶nder": 2120,
      "kara": 2121,
      "nun": 2122,
      "ola": 2123,
      "insel": 2124,
      "Ġkere": 2125,
      "Ġstr": 2126,
      "Ġgiz": 2127,
      "ĠGeÃ§": 2128,
      "lÄ±yordu": 2129,
      "AÄŁ": 2130,
      "EN": 2131,
      "Ġj": 2132,
      "ÄŁÄ±na": 2133,
      "ĠSol": 2134,
      "Ġedin": 2135,
      "meyece": 2136,
      "ĠrahatsÄ±zlÄ±k": 2137,
      "ĠgerektiÄŁini": 2138,
      "AteÅŁ": 2139,
      "dÃ¼ÄŁÃ¼": 2140,
      "Ġem": 2141,
      "ĠseÃ§": 2142,
      "ĠbaÅŁÄ±nÄ±": 2143,
      "ĠkurÅŁ": 2144,
      "Ġyazar": 2145,
      "Ġkeskin": 2146,
      "otik": 2147,
      "sur": 2148,
      "van": 2149,
      "ĠboÄŁaz": 2150,
      "Ã¶ÄŁÃ¼s": 2151,
      "umun": 2152,
      "iyorsun": 2153,
      "eyen": 2154,
      "ĠaltÄ±": 2155,
      "Ġbilgi": 2156,
      "miÅŁtim": 2157,
      "Ġkonuda": 2158,
      "ĠiÅŁe": 2159,
      "Ġkolay": 2160,
      "ĠoluÅŁtur": 2161,
      "Ġheyecan": 2162,
      "dÃ¼k": 2163,
      "Ġvur": 2164,
      "Ġveri": 2165,
      "ĠKor": 2166,
      "ĠTÄ±p": 2167,
      "ĠYalnÄ±z": 2168,
      "Ġsorunu": 2169,
      "ĠKarÄ±n": 2170,
      "An": 2171,
      "lÄ±ÄŁÄ±m": 2172,
      "Ã¼mÃ¼": 2173,
      "evi": 2174,
      "laÅŁtÄ±": 2175,
      "ĠyÃ¼zÃ¼nden": 2176,
      "Ġmesel": 2177,
      "ite": 2178,
      "per": 2179,
      "tiler": 2180,
      "arÄ±klÄ±k": 2181,
      "ĠbeÄŁen": 2182,
      "anÄ±k": 2183,
      "Ġolsun": 2184,
      "tah": 2185,
      "Ġpan": 2186,
      "landÄ±": 2187,
      "Ġzamanlarda": 2188,
      "Ġarada": 2189,
      "ĠÅŀiÅŁ": 2190,
      "ĠArtÄ±k": 2191,
      "ĠÅŁeklinde": 2192,
      "sÄ±nÄ±z": 2193,
      "Ġdir": 2194,
      "Ä±lma": 2195,
      "Ġdurumunda": 2196,
      "ĠgerÃ§ekleÅŁtir": 2197,
      "Ġburun": 2198,
      "for": 2199,
      "ox": 2200,
      "oid": 2201,
      "sÄ±nÄ±": 2202,
      "ing": 2203,
      "ĠBÃ¶yle": 2204,
      "ĠHem": 2205,
      "ĠKon": 2206,
      "Ġyapma": 2207,
      "Ġhava": 2208,
      "ĠolmadÄ±": 2209,
      "ĠdeÄŁilim": 2210,
      "Ġseviy": 2211,
      "ĠiliÅŁkin": 2212,
      "ĠhÃ¼kÃ¼m": 2213,
      "gil": 2214,
      "Ġey": 2215,
      "arda": 2216,
      "Ä±lmasÄ±": 2217,
      "Ġbilmiyorum": 2218,
      "Ġteh": 2219,
      "Ġlek": 2220,
      "Ġkaybet": 2221,
      "ĠbasÄ±n": 2222,
      "Ġcez": 2223,
      "Ġyat": 2224,
      "Ġanlama": 2225,
      "200": 2226,
      "50": 2227,
      "dÃ¼ÄŁ": 2228,
      "Ä±la": 2229,
      "Ġyana": 2230,
      "lÄ±p": 2231,
      "esinin": 2232,
      "ĠHep": 2233,
      "Ġburada": 2234,
      "ĠKanun": 2235,
      "Ġmek": 2236,
      "Ġbez": 2237,
      "matik": 2238,
      "ĠgÃ¼c": 2239,
      "eyim": 2240,
      "Ä°K": 2241,
      "laÅŁma": 2242,
      "ĠbaktÄ±": 2243,
      "malÄ±dÄ±r": 2244,
      "Ġeksik": 2245,
      "Ġbuna": 2246,
      "medim": 2247,
      "ikÃ¢": 2248,
      "duk": 2249,
      "ĠSal": 2250,
      "ĠaydÄ±r": 2251,
      "Ġonlara": 2252,
      "Ġkurt": 2253,
      "ĠÃ§alÄ±ÅŁma": 2254,
      "Ã§Ä±": 2255,
      "Ġmil": 2256,
      "ulu": 2257,
      "ĠgÃ¶ÄŁs": 2258,
      "ĠolmadÄ±ÄŁÄ±": 2259,
      "ĠAnkara": 2260,
      "ĠÄ°ÅŁte": 2261,
      "ĠBak": 2262,
      "tiÄŁi": 2263,
      "ĠYan": 2264,
      "Ġorada": 2265,
      "ĠPro": 2266,
      "Ġcev": 2267,
      "Ġkendine": 2268,
      "ĠhÄ±zlÄ±": 2269,
      "mat": 2270,
      "ĠatÄ±": 2271,
      "Ġneler": 2272,
      "ĠGer": 2273,
      "ĠgÃ¼ndÃ¼r": 2274,
      "Ġkazan": 2275,
      "Ġkala": 2276,
      "Ġdair": 2277,
      "ukarÄ±": 2278,
      "amÄ±n": 2279,
      "ĠbaÅŁvur": 2280,
      "Ġbelg": 2281,
      "larÄ±mÄ±": 2282,
      "ĠÃ¶ÄŁret": 2283,
      "onksiyon": 2284,
      "kÄ±n": 2285,
      "Ġdedim": 2286,
      "ĠÅŁaÅŁ": 2287,
      "Ġpo": 2288,
      "Ġ17": 2289,
      "ĠEvet": 2290,
      "Ġort": 2291,
      "lÄ±ÄŁa": 2292,
      "olog": 2293,
      "Ġelim": 2294,
      "Ġyor": 2295,
      "Ġgiy": 2296,
      "tay": 2297,
      "yal": 2298,
      "Ġkanun": 2299,
      "Ġ30": 2300,
      "ĠkullanÄ±yorum": 2301,
      "ĠbunlarÄ±": 2302,
      "ĠsorumluluÄŁu": 2303,
      "ĠoldukÃ§a": 2304,
      "'t": 2305,
      "ebil": 2306,
      "iq": 2307,
      "ĠaÅŁ": 2308,
      "Ġiler": 2309,
      "ĠNur": 2310,
      "kinlik": 2311,
      "Ġkaybol": 2312,
      "sil": 2313,
      "ĠÃ¼n": 2314,
      "Ġam": 2315,
      "ulmasÄ±": 2316,
      "Ġpat": 2317,
      "lanmasÄ±": 2318,
      "ĠAllah": 2319,
      "ĠÃ¶zellikle": 2320,
      "Ġresim": 2321,
      "Ġenfeksiyonu": 2322,
      "ĠvÃ¼cu": 2323,
      "bu": 2324,
      "ilir": 2325,
      "Ġhus": 2326,
      "eti": 2327,
      "Ġoldum": 2328,
      "ilere": 2329,
      "elerde": 2330,
      "Ġgerekiyor": 2331,
      "ĠinsanÄ±n": 2332,
      "Ġevlen": 2333,
      "ĠbaÅŁladÄ±m": 2334,
      "ĠBeyin": 2335,
      "dÄ±ÄŁÄ±mÄ±": 2336,
      "Ġbekl": 2337,
      "meliyim": 2338,
      "dÃ¼ÄŁÃ¼m": 2339,
      "syon": 2340,
      "ĠdÃ¼ÄŁÃ¼m": 2341,
      "mÄ±ÅŁtÄ±m": 2342,
      "rans": 2343,
      "dÄ±ktan": 2344,
      "ant": 2345,
      "ĠkÃ¼r": 2346,
      "ĠiÃ§ine": 2347,
      "ĠYar": 2348,
      "tÄ±rma": 2349,
      "Ġnedenle": 2350,
      "Ġuzman": 2351,
      "Ġceza": 2352,
      "ĠbulantÄ±sÄ±": 2353,
      "emek": 2354,
      "lili": 2355,
      "Ġsiy": 2356,
      "ĠalÄ±yorum": 2357,
      "ĠyaÄŁ": 2358,
      "Ġolsa": 2359,
      "Ġmus": 2360,
      "isini": 2361,
      "ĠBiraz": 2362,
      "Ġevde": 2363,
      "Ġtedavisi": 2364,
      "ehir": 2365,
      "ĠBazÄ±": 2366,
      "Ġmet": 2367,
      "Ġ................................................................": 2368,
      "eyle": 2369,
      "ĠKiÅŁ": 2370,
      "lif": 2371,
      "Ġparmak": 2372,
      "ĠOnun": 2373,
      "Ġsorumlu": 2374,
      "Ġbizim": 2375,
      "80": 2376,
      "eÄŁi": 2377,
      "muyor": 2378,
      "Ġbeb": 2379,
      "ĠtÃ¼k": 2380,
      "ĠÅŁart": 2381,
      "ĠDÃ¼n": 2382,
      "lenen": 2383,
      "iyeti": 2384,
      "ĠgeÃ§irdim": 2385,
      "Ġkomp": 2386,
      "ĠÃ¼lk": 2387,
      "abilir": 2388,
      "edi": 2389,
      "Ġutan": 2390,
      "ĠÄ°s": 2391,
      "ĠÃ§Ä±kan": 2392,
      "ĠakÄ±l": 2393,
      "ĠhastalÄ±ÄŁÄ±": 2394,
      "ĠkÃ¶t": 2395,
      "ĠdeÄŁerlendir": 2396,
      "lo": 2397,
      "Ġ0": 2398,
      "ĠÄ±sÄ±": 2399,
      "ans": 2400,
      "lantÄ±": 2401,
      "ĠaÄŁrÄ±m": 2402,
      "Ġalmak": 2403,
      "ĠbaÅŁÄ±na": 2404,
      "Ä±lmaz": 2405,
      "usuz": 2406,
      "Ġris": 2407,
      "Ġverme": 2408,
      "ĠdÃ¶nem": 2409,
      "ĠOnu": 2410,
      "Ġyetk": 2411,
      "ĠsorumluluÄŁ": 2412,
      "Ġkelime": 2413,
      "15": 2414,
      "201": 2415,
      "ĠAra": 2416,
      "ĠaldÄ±": 2417,
      "Ġfak": 2418,
      "ĠDer": 2419,
      "Ġ16": 2420,
      "ĠdeÄŁildi": 2421,
      "ĠgiriÅŁ": 2422,
      "Ġhukuki": 2423,
      "ade": 2424,
      "lin": 2425,
      "lilik": 2426,
      "miyordu": 2427,
      "tuÄŁ": 2428,
      "Ġyeme": 2429,
      "tiha": 2430,
      "atta": 2431,
      "Ġkalma": 2432,
      "dÄ±ÄŁÄ±mda": 2433,
      "Ġtavsiye": 2434,
      "sÄ±yla": 2435,
      "ĠAma": 2436,
      "ayas": 2437,
      "Ġanormal": 2438,
      "Ã¼lt": 2439,
      "ĠgÃ¼nÃ¼": 2440,
      "Ġdoktora": 2441,
      "lÄ±ÄŁÄ±na": 2442,
      "ĠbaskÄ±": 2443,
      "Ġoyna": 2444,
      "ĠvÃ¼cut": 2445,
      "ĠteÅŁhis": 2446,
      "tÄ±n": 2447,
      "ilmiÅŁ": 2448,
      "izik": 2449,
      "ĠKay": 2450,
      "ĠMÃ¼": 2451,
      "Ġgelir": 2452,
      "ĠdÃ¼ÅŁÃ¼r": 2453,
      "ĠaraÅŁ": 2454,
      "ĠparÃ§a": 2455,
      "ĠiliÅŁki": 2456,
      "ĠÃ§evres": 2457,
      "AÄŁrÄ±": 2458,
      "meyecek": 2459,
      "ĠÃ§ocuÄŁ": 2460,
      "ĠsÄ±vÄ±": 2461,
      "ĠyÄ±k": 2462,
      "ĠadÄ±m": 2463,
      "Ġtip": 2464,
      "Ġiti": 2465,
      "ĠSan": 2466,
      "ĠbaÅŁarÄ±": 2467,
      "ĠyanÄ±": 2468,
      "Ġinsanlar": 2469,
      "ĠdÃ¼zel": 2470,
      "ĠÃĩÃ¼nkÃ¼": 2471,
      "ĠyÃ¶ntem": 2472,
      "ĠBaÅŁka": 2473,
      "Ġsorumluluk": 2474,
      "ĠgÃ¼Ã§lÃ¼ÄŁÃ¼": 2475,
      "Ġmisiniz": 2476,
      "abil": 2477,
      "tis": 2478,
      "vik": 2479,
      "Ã§i": 2480,
      "ĠhoÅŁ": 2481,
      "ĠtÄ±p": 2482,
      "Ġfik": 2483,
      "ĠgÃ¼nlÃ¼k": 2484,
      "Ġengel": 2485,
      ",,,,,,,,,": 2486,
      "Ġdikkat": 2487,
      "mÃ®": 2488,
      "ÅŁÄ±k": 2489,
      "ĠkuÅŁ": 2490,
      "Ġsaf": 2491,
      "Ġsap": 2492,
      "Ä±lmÄ±ÅŁ": 2493,
      "Ġtep": 2494,
      "leÅŁme": 2495,
      "leyen": 2496,
      "Ġeklem": 2497,
      "ĠkarÄ±ncalanma": 2498,
      "ĠKendi": 2499,
      "biyotik": 2500,
      "Ġhusus": 2501,
      "Ġaler": 2502,
      "Ġikinci": 2503,
      "leriyle": 2504,
      "lerimi": 2505,
      "Ġyatak": 2506,
      "ĠdaÄŁÄ±": 2507,
      "ĠKus": 2508,
      "ĠTarih": 2509,
      "abet": 2510,
      "ĠyaptÄ±rdÄ±m": 2511,
      "Ġhangi": 2512,
      "Ġciddi": 2513,
      "25": 2514,
      "zer": 2515,
      "ÄŁÄ±ndan": 2516,
      "Ġvak": 2517,
      "unum": 2518,
      "asÄ±ndan": 2519,
      "Ġday": 2520,
      "Ġroman": 2521,
      "Ġuzan": 2522,
      "geÃ§": 2523,
      "Ġzorun": 2524,
      "ĠkiÅŁisel": 2525,
      "caÄŁÄ±mÄ±": 2526,
      "--": 2527,
      "tÃ¼m": 2528,
      "ĠnÃ¶": 2529,
      "iyoruz": 2530,
      "ĠKÄ±z": 2531,
      "Ġand": 2532,
      "ĠyaptÄ±m": 2533,
      "Ġonlar": 2534,
      "Ġyanma": 2535,
      "Ġistem": 2536,
      "ĠgeniÅŁ": 2537,
      "ĠsÄ±kÄ±": 2538,
      "Ġduyg": 2539,
      "Ġkemik": 2540,
      "Ġmiktar": 2541,
      "BA": 2542,
      "hil": 2543,
      "Äŀ": 2544,
      "oksi": 2545,
      "tein": 2546,
      "ĠYa": 2547,
      "Ġkapsam": 2548,
      "dikleri": 2549,
      "Ġprosta": 2550,
      "melidir": 2551,
      "Ġkulak": 2552,
      "ĠrÄ±z": 2553,
      ".\"": 2554,
      "ua": 2555,
      "anÄ±ÅŁ": 2556,
      "Ġkir": 2557,
      "ekil": 2558,
      "etic": 2559,
      "ĠiÃ§eri": 2560,
      "ayÄ±n": 2561,
      "Ġkonu": 2562,
      "ĠgeÃ§miÅŁ": 2563,
      "Ä±sÄ±ndan": 2564,
      "Ġtarafta": 2565,
      "ĠbÃ¼yÃ¼": 2566,
      "urga": 2567,
      "ĠdÄ±ÅŁkÄ±": 2568,
      "Ġizin": 2569,
      "Ġmemur": 2570,
      "Ġstres": 2571,
      "cÄ±k": 2572,
      "Ġ,": 2573,
      "Ġtaz": 2574,
      "ĠBÃ¶": 2575,
      "Ä±rdÄ±": 2576,
      "Ġbildir": 2577,
      "Ã¶nt": 2578,
      "ĠiÅŁlem": 2579,
      "lamaya": 2580,
      "uyu": 2581,
      "Ã¼yÃ¼k": 2582,
      "Ġkanseri": 2583,
      "ĠkonuÅŁma": 2584,
      "olojik": 2585,
      "16": 2586,
      "nek": 2587,
      "ent": 2588,
      "Ġduvar": 2589,
      "Ġdep": 2590,
      "ĠyapÄ±yor": 2591,
      "diÄŁimi": 2592,
      "Ġbekle": 2593,
      "halde": 2594,
      "Ġyumur": 2595,
      "ĠHukuku": 2596,
      "Ġtehlik": 2597,
      "dun": 2598,
      "Ġic": 2599,
      "ĠSuÃ§": 2600,
      "lÄ±kla": 2601,
      "caba": 2602,
      "Ġ18": 2603,
      "Ġ24": 2604,
      "ĠÃ§Ä±kÄ±yor": 2605,
      "ĠaÃ§Ä±": 2606,
      "uvvet": 2607,
      "ĠÃ§eÅŁitli": 2608,
      "Ġneredeyse": 2609,
      "97": 2610,
      "ST": 2611,
      "bis": 2612,
      "Ġul": 2613,
      "ilme": 2614,
      "ĠgeÃ§ti": 2615,
      "Ġsahte": 2616,
      "saydÄ±": 2617,
      "diy": 2618,
      "Ġsemptomlar": 2619,
      "ĠBun": 2620,
      "isinde": 2621,
      "ayan": 2622,
      "Ġzamanlar": 2623,
      "ĠyÃ¼ksel": 2624,
      "ĠyaÅŁÄ±ndaki": 2625,
      "Ġduygu": 2626,
      "ĠAlbay": 2627,
      "ĠÃ§evr": 2628,
      "Ġunsur": 2629,
      "30": 2630,
      "ati": 2631,
      "eden": 2632,
      "rin": 2633,
      "Ġbize": 2634,
      "ekt": 2635,
      "ĠHaf": 2636,
      "ĠaÄŁz": 2637,
      "ĠuÃ§": 2638,
      "Ä°R": 2639,
      "Ġbilim": 2640,
      "ĠayrÄ±l": 2641,
      "lenmesi": 2642,
      "muÅŁtu": 2643,
      "ĠaltÄ±na": 2644,
      "Ġidarenin": 2645,
      "ĠsonrasÄ±": 2646,
      "ime": 2647,
      "vuz": 2648,
      "inci": 2649,
      "Ġyorgun": 2650,
      "onik": 2651,
      "Ġkalan": 2652,
      "Ġyata": 2653,
      "ĠiÅŁle": 2654,
      "ĠdÄ±ÅŁarÄ±": 2655,
      "Ġesas": 2656,
      "ĠyetiÅŁ": 2657,
      "ĠarasÄ±ndaki": 2658,
      "aliba": 2659,
      "ĠkurÅŁun": 2660,
      "best": 2661,
      "Ã¼ler": 2662,
      "Ġbes": 2663,
      "Ġtitr": 2664,
      "ĠBulan": 2665,
      "esiz": 2666,
      "ayet": 2667,
      "ĠGÃ¶r": 2668,
      "ĠakÅŁam": 2669,
      "ĠkaygÄ±": 2670,
      "ĠkÄ±sÄ±": 2671,
      "ĠdÃ¼zensiz": 2672,
      "ĠaslÄ±nda": 2673,
      "bette": 2674,
      "Ġsistem": 2675,
      "Ġcevap": 2676,
      "ĠyukarÄ±": 2677,
      "ĠAm": 2678,
      "ĠYaÅŁ": 2679,
      "Ġbulunan": 2680,
      "ĠkÄ±rÄ±": 2681,
      "14": 2682,
      "dem": 2683,
      "lukoz": 2684,
      "mesinin": 2685,
      "eza": 2686,
      "ĠUz": 2687,
      "Ġkendisine": 2688,
      "Ġbozuk": 2689,
      "ĠÄ°lk": 2690,
      "ĠW": 2691,
      "ĠĠ": 2692,
      "Ġmar": 2693,
      "emiz": 2694,
      "Ä±zda": 2695,
      "Ġondan": 2696,
      "elere": 2697,
      "ocuk": 2698,
      "ĠOna": 2699,
      "ĠkÃ¢ÄŁÄ±t": 2700,
      "24": 2701,
      "95": 2702,
      "AL": 2703,
      "Ġkuvvet": 2704,
      "Ġdiyor": 2705,
      "Ġkafa": 2706,
      "etim": 2707,
      "ĠKita": 2708,
      "amu": 2709,
      "ĠYÃ¼ksek": 2710,
      "ĠbulunmaktadÄ±r": 2711,
      "ĠsÄ±nÄ±f": 2712,
      "Ġlen": 2713,
      "mediÄŁi": 2714,
      "ĠKap": 2715,
      "ĠDoÄŁ": 2716,
      "Ġyapmak": 2717,
      "ĠkalÄ±n": 2718,
      "elerini": 2719,
      "ĠhaklarÄ±": 2720,
      "ĠÅŀu": 2721,
      "Ġdisk": 2722,
      "ĠÄ°dar": 2723,
      "Ġuygulan": 2724,
      "ĠvekÃ¢let": 2725,
      "ĠBab": 2726,
      "Ġedilen": 2727,
      "ĠÃ§ekiyorum": 2728,
      "Ġuygulama": 2729,
      "MET": 2730,
      "Ġez": 2731,
      "ĠYok": 2732,
      "Ġrapor": 2733,
      "ĠÃ§ektir": 2734,
      "ĠÃ¼stÃ¼nde": 2735,
      "ĠkÃ¶tÃ¼leÅŁ": 2736,
      "bileceÄŁi": 2737,
      "ĠuÄŁraÅŁ": 2738,
      "ĠolabileceÄŁini": 2739,
      "13": 2740,
      "yo": 2741,
      "yim": 2742,
      "inc": 2743,
      "Ġsez": 2744,
      "ĠalÄ±r": 2745,
      "Ġtrans": 2746,
      "tÄ±ra": 2747,
      "Ġmo": 2748,
      "ĠSayÄ±": 2749,
      "ĠHam": 2750,
      "Ġsab": 2751,
      "Ġpoz": 2752,
      "ĠaÄŁrÄ±lar": 2753,
      "Ġmasa": 2754,
      "eceÄŁim": 2755,
      "ĠdoÄŁum": 2756,
      "ĠÃ§alÄ±ÅŁan": 2757,
      "ĠÃ¶zen": 2758,
      "Ġilgilen": 2759,
      "udak": 2760,
      "Ġantibiyotik": 2761,
      "do": 2762,
      "lit": 2763,
      "lanÄ±r": 2764,
      "Ġfonksiyon": 2765,
      "ĠonlarÄ±n": 2766,
      "ĠyaÅŁantÄ±": 2767,
      "ĠBugÃ¼n": 2768,
      "ĠkÃ¶ÅŁ": 2769,
      "Ġyolu": 2770,
      "Ġhukuku": 2771,
      "Ġkoltuk": 2772,
      "27": 2773,
      "sinin": 2774,
      "zi": 2775,
      "Ġbec": 2776,
      "isin": 2777,
      "ĠfÄ±r": 2778,
      "ĠTa": 2779,
      "ĠakciÄŁer": 2780,
      "Ġnedeni": 2781,
      "ĠAnayas": 2782,
      "ĠkarÄ±ÅŁÄ±k": 2783,
      "Ġmektu": 2784,
      "23": 2785,
      "gisi": 2786,
      "Ä±ra": 2787,
      "erm": 2788,
      "may": 2789,
      "ĠhayÄ±r": 2790,
      "dÄ±lar": 2791,
      "stan": 2792,
      "ayda": 2793,
      "uÅŁtur": 2794,
      "ĠÄ°ki": 2795,
      "ÄŁimde": 2796,
      "Ġaktiv": 2797,
      "larÄ±mÄ±z": 2798,
      "ĠyaÅŁadÄ±m": 2799,
      "ĠÃľst": 2800,
      "Ġsebeb": 2801,
      "Ġkavram": 2802,
      "Ã¼ncÃ¼": 2803,
      "ikÃ¢y": 2804,
      "hen": 2805,
      "ia": 2806,
      "Ġemin": 2807,
      "erim": 2808,
      "Ġnedir": 2809,
      "Ã¼mde": 2810,
      "ĠbakÄ±ÅŁ": 2811,
      "Ġistiyor": 2812,
      "eÄŁin": 2813,
      "Ġidare": 2814,
      "Ġeylem": 2815,
      "Ġsiyah": 2816,
      "17": 2817,
      "pit": 2818,
      "Ġbiy": 2819,
      "Ġsize": 2820,
      "Ġait": 2821,
      "ĠTe": 2822,
      "ĠYaz": 2823,
      "Ġbenden": 2824,
      "ĠNaz": 2825,
      "ĠdÃ¼ÅŁÃ¼nÃ¼yor": 2826,
      "Ġsalon": 2827,
      "ĠdÃ¶kÃ¼l": 2828,
      "ĠHastanÄ±n": 2829,
      "Ġdayana": 2830,
      "??": 2831,
      "net": 2832,
      "ÄŁiniz": 2833,
      "Ġalay": 2834,
      "memiÅŁ": 2835,
      "Ġuc": 2836,
      "ĠkardeÅŁ": 2837,
      "Ġuzat": 2838,
      "larÄ±mÄ±n": 2839,
      "ĠsÄ±nÄ±r": 2840,
      "YY": 2841,
      "seli": 2842,
      "zu": 2843,
      "Ġyen": 2844,
      "ĠkasÄ±": 2845,
      "eyin": 2846,
      "Ġplan": 2847,
      "ĠbaÅŁk": 2848,
      "Ġsonucu": 2849,
      "ĠÃ¶ngÃ¶r": 2850,
      "ĠolasÄ±": 2851,
      "ĠyargÄ±": 2852,
      "ĠkÄ±zarÄ±klÄ±k": 2853,
      "Ġtoplum": 2854,
      "ĠGerÃ§ek": 2855,
      "ĠBulantÄ±": 2856,
      "erken": 2857,
      "irler": 2858,
      "Ġbirik": 2859,
      "ĠgÃ¶m": 2860,
      "Ġdamar": 2861,
      "Ġiltiha": 2862,
      "Ġbiliyorum": 2863,
      "Ġhaber": 2864,
      "ĠiÅŁi": 2865,
      "ĠÅŁeyin": 2866,
      "Ġoksi": 2867,
      "Ġkesin": 2868,
      "ĠkÄ±smÄ±": 2869,
      "Ġhiper": 2870,
      ")\"}": 2871,
      "ĠsarÄ±": 2872,
      "meti": 2873,
      "ĠhenÃ¼z": 2874,
      "ĠbaÅŁlan": 2875,
      "ĠgÃ¶rdÃ¼m": 2876,
      "dÄ±klarÄ±": 2877,
      "osit": 2878,
      "Ġerken": 2879,
      "Ġhissettim": 2880,
      "ĠuyuÅŁma": 2881,
      "ĠteÅŁhisi": 2882,
      "AK": 2883,
      "Ġglukoz": 2884,
      "dal": 2885,
      "ĠiÄŁ": 2886,
      "ĠBuna": 2887,
      "Ġolum": 2888,
      "ĠÅŁÃ¼p": 2889,
      "ĠaÄŁÄ±z": 2890,
      "Ġistemiyorum": 2891,
      "eceÄŁini": 2892,
      "dikten": 2893,
      "Ġsesle": 2894,
      "ĠHaklarÄ±": 2895,
      "ĠGÃ¼nseli": 2896,
      "ĠdeÄŁiÅŁiklikleri": 2897,
      "ĠGeÃ§en": 2898,
      "IN": 2899,
      "bs": 2900,
      "diniz": 2901,
      "eÄŁim": 2902,
      "sÃ¼z": 2903,
      "Ã¼yle": 2904,
      "ĠkÃ¼Ã§": 2905,
      "Ã§ak": 2906,
      "isine": 2907,
      "olik": 2908,
      "Ġfel": 2909,
      "mekten": 2910,
      "ĠYap": 2911,
      "Ġrol": 2912,
      "ĠverdiÄŁi": 2913,
      "ĠiÅŁaret": 2914,
      "bilirim": 2915,
      "ĠÅŁiÅŁmiÅŁ": 2916,
      "Ġboyn": 2917,
      "ĠhÃ¢linde": 2918,
      "Ġefendimiz": 2919,
      "kÃ¢n": 2920,
      "Ġhesap": 2921,
      "60": 2922,
      "90": 2923,
      "arÄ±n": 2924,
      "Ġit": 2925,
      "ĠaÄŁrÄ±lÄ±": 2926,
      "ĠYÃ¶n": 2927,
      "ĠrÃ¶nt": 2928,
      "Ã¼ye": 2929,
      "Ġkoc": 2930,
      "ĠCeza": 2931,
      "ereden": 2932,
      "Ġsevin": 2933,
      "Ġistedi": 2934,
      "ĠsÃ¶zleÅŁmesi": 2935,
      "ĠyÃ¼rÃ¼": 2936,
      "ĠÃ§evir": 2937,
      "ĠrÄ±za": 2938,
      "Ä±rsak": 2939,
      "ban": 2940,
      "dini": 2941,
      "arkÄ±": 2942,
      "Ġsef": 2943,
      "ĠyoÄŁun": 2944,
      "ĠulaÅŁ": 2945,
      "Ġkarn": 2946,
      "Ġcinsel": 2947,
      "ĠBirkaÃ§": 2948,
      "ĠgerÃ§ekleÅŁ": 2949,
      "ĠhaftadÄ±r": 2950,
      "Ġgecik": 2951,
      "Ġbirbirine": 2952,
      "Ġtamamen": 2953,
      "ĠbiÃ§im": 2954,
      "Ġlenf": 2955,
      "94": 2956,
      "sp": 2957,
      "ydÄ±m": 2958,
      "arÄ±m": 2959,
      "erik": 2960,
      "ladÄ±m": 2961,
      "ĠÃ§aÄŁ": 2962,
      "Ä°L": 2963,
      "Ġkonuldu": 2964,
      "ĠNer": 2965,
      "ĠgÃ¶zden": 2966,
      "ĠSonunda": 2967,
      "ĠKanunu": 2968,
      "Ġbenzer": 2969,
      "ĠdÃ¶kÃ¼ntÃ¼": 2970,
      "Ġomuz": 2971,
      "ĠÄ°drar": 2972,
      "ĠSorumlul": 2973,
      "Ġitibar": 2974,
      "ii": 2975,
      "ke": 2976,
      "Ã¼le": 2977,
      "dev": 2978,
      "lerce": 2979,
      "isiz": 2980,
      "Ä±ndaki": 2981,
      "ĠalgÄ±n": 2982,
      "ĠolduÄŁumu": 2983,
      "gede": 2984,
      "versit": 2985,
      "Ġmeslek": 2986,
      "ĠboÅŁal": 2987,
      "Ġseks": 2988,
      "aa": 2989,
      "tÃ¶r": 2990,
      "ardÄ±": 2991,
      "arken": 2992,
      "Ġbal": 2993,
      "erra": 2994,
      "lamasÄ±": 2995,
      "Ġitir": 2996,
      "amÄ±yorum": 2997,
      "ĠDÃ¼z": 2998,
      "uÅŁak": 2999,
      "usal": 3000,
      "ĠMR": 3001,
      "ĠolduÄŁum": 3002,
      "masÄ±nÄ±n": 3003,
      "ĠyaklaÅŁ": 3004,
      "larÄ±mda": 3005,
      "ĠTÃ¼rkÃ§e": 3006,
      "ĠameliyatÄ±": 3007,
      "87": 3008,
      "OR": 3009,
      "ben": 3010,
      "iyat": 3011,
      "uman": 3012,
      "ĠÃ§oÄŁ": 3013,
      "allÄ±": 3014,
      "ĠHÄ°K": 3015,
      "lanmÄ±ÅŁ": 3016,
      "ĠkaranlÄ±k": 3017,
      "Ġsordu": 3018,
      "Ġyoktur": 3019,
      "ĠaÃ§Ä±sÄ±ndan": 3020,
      "Ġhastaneye": 3021,
      "ĠÃ¶ÄŁrenc": 3022,
      "Ġniteli": 3023,
      "ĠHÄ°KMET": 3024,
      "Ġli": 3025,
      "ĠaldÄ±r": 3026,
      "ĠbaÅŁÄ±m": 3027,
      "haf": 3028,
      "ĠaylÄ±k": 3029,
      "Ġgergin": 3030,
      "trik": 3031,
      "ĠdÃ¼zey": 3032,
      "Ġderin": 3033,
      "ĠÃĩocuk": 3034,
      "Ġparma": 3035,
      "Ġprob": 3036,
      "Ġmesle": 3037,
      "Ġhissetti": 3038,
      "63": 3039,
      "Ġgaliba": 3040,
      "Ġada": 3041,
      "imden": 3042,
      "Ġmuk": 3043,
      "ĠSaf": 3044,
      "Ã¼mÃ¼n": 3045,
      "ĠGÃ¶ÄŁÃ¼s": 3046,
      "baÅŁ": 3047,
      "ĠolduÄŁundan": 3048,
      "Ġherhalde": 3049,
      "uzur": 3050,
      "Ġyerinde": 3051,
      "Ġkurum": 3052,
      "Ġele": 3053,
      "Ġelbis": 3054,
      "ĠdÃ¼ÅŁÃ¼ndÃ¼": 3055,
      "Ġdurumlarda": 3056,
      "ĠÃ§ekin": 3057,
      "Ġtakdir": 3058,
      "ĠsaygÄ±": 3059,
      "Ġkahra": 3060,
      "Ġsokak": 3061,
      "Ġgenellikle": 3062,
      "ĠGenel": 3063,
      "ĠYaklaÅŁÄ±k": 3064,
      "Ġkalaba": 3065,
      "IM": 3066,
      "sir": 3067,
      "ilmiÅŁtir": 3068,
      "ĠadÄ±": 3069,
      "yordu": 3070,
      "Ġdef": 3071,
      "Ġsav": 3072,
      "ĠYanÄ±": 3073,
      "ilerini": 3074,
      "lÄ±ÄŁÄ±nÄ±n": 3075,
      "ĠKarar": 3076,
      "ĠkadÄ±nÄ±m": 3077,
      "Ġbenzeri": 3078,
      "ĠkalktÄ±": 3079,
      "ajinal": 3080,
      "ĠortasÄ±nda": 3081,
      "BaÅŁ": 3082,
      "kop": 3083,
      "ov": 3084,
      "yÄ±z": 3085,
      "Ã¼ya": 3086,
      "ĠBunu": 3087,
      "ĠBÃ¼yÃ¼k": 3088,
      "Ġdefa": 3089,
      "ĠDo": 3090,
      "Ġsonuc": 3091,
      "ĠYeni": 3092,
      "Ġ11": 3093,
      "Ġgeb": 3094,
      "sef": 3095,
      "Ġkuru": 3096,
      "ĠbakalÄ±m": 3097,
      "ĠdÃ¶ndÃ¼": 3098,
      "Ġeve": 3099,
      "Ġ50": 3100,
      "ĠbulunmasÄ±": 3101,
      "ĠbÄ±raktÄ±": 3102,
      "Ġonunla": 3103,
      "lerimin": 3104,
      "Ġsperm": 3105,
      "ĠBazen": 3106,
      "ĠendiÅŁeleniyorum": 3107,
      "ĠgÃ¼lÃ¼mse": 3108,
      "uÅŁma": 3109,
      "ĠÃ¶nÃ¼nde": 3110,
      "Ġces": 3111,
      "aÄŁa": 3112,
      "ĠÃ¶zg": 3113,
      "Ġbunlar": 3114,
      "ĠÃ¶zellik": 3115,
      "Ġaptal": 3116,
      "Ġalmada": 3117,
      "ĠbÃ¶lgesinde": 3118,
      "Ġbeyin": 3119,
      "Ġuyku": 3120,
      "ĠtartÄ±ÅŁ": 3121,
      "dÃ¼ÄŁÃ¼nÃ¼": 3122,
      "Ä±rÄ±l": 3123,
      "Ã¼f": 3124,
      "arasÄ±": 3125,
      "Ġdel": 3126,
      "mamasÄ±": 3127,
      "Ġzaten": 3128,
      "Ġfizik": 3129,
      "Ġfayda": 3130,
      "ĠDiÅŁ": 3131,
      "Ġveriyor": 3132,
      "Ġ23": 3133,
      "Ġ25": 3134,
      "Ġmez": 3135,
      "Ġortadan": 3136,
      "Ġserbest": 3137,
      "Ġyeter": 3138,
      "ĠarkadaÅŁÄ±m": 3139,
      "Ġgizli": 3140,
      "Ġverici": 3141,
      ".âĢĻ": 3142,
      "86": 3143,
      "aka": 3144,
      "ĠÃ§at": 3145,
      "ĠHe": 3146,
      "Ä±rma": 3147,
      "Ä±rken": 3148,
      "Ġila": 3149,
      "ĠyapÄ±yorum": 3150,
      "ĠreÃ§": 3151,
      "ĠÃ§Ä±kma": 3152,
      "Ġdurdur": 3153,
      "Ġelini": 3154,
      "Ġ40": 3155,
      "ĠNefes": 3156,
      "osyal": 3157,
      "Ġtutul": 3158,
      "ĠhayatÄ±m": 3159,
      "ĠateÅŁi": 3160,
      "Ġhamil": 3161,
      "gatif": 3162,
      "ĠTarihi": 3163,
      "ĠYanÄ±t": 3164,
      "Ne": 3165,
      "ku": 3166,
      "Ġse": 3167,
      "Ġyine": 3168,
      "Ġten": 3169,
      "dip": 3170,
      "Ġbulama": 3171,
      "Ġbilmek": 3172,
      "evÅŁ": 3173,
      "ĠkadÄ±nÄ±n": 3174,
      "ĠakÄ±ntÄ±": 3175,
      "Ġidari": 3176,
      "Ġbahset": 3177,
      "____": 3178,
      "Ġincel": 3179,
      "83": 3180,
      "LA": 3181,
      "lerdir": 3182,
      "Ġkast": 3183,
      "etme": 3184,
      "Ġziy": 3185,
      "Ã¼mÃ¼z": 3186,
      "Ä±sÄ±nÄ±": 3187,
      "masÄ±nda": 3188,
      "ĠAnn": 3189,
      "Ġaraba": 3190,
      "ĠparÃ§": 3191,
      "ĠdÃ¼zenleme": 3192,
      "layarak": 3193,
      "ĠettiÄŁi": 3194,
      "ĠyaptÄ±ÄŁÄ±": 3195,
      "Ġrisk": 3196,
      "Ġtazmin": 3197,
      "Ġproblem": 3198,
      "ÅŁey": 3199,
      "meÄŁe": 3200,
      "ĠAd": 3201,
      "ĠDi": 3202,
      "ĠgereÄŁi": 3203,
      "ĠNasÄ±l": 3204,
      "ĠtanÄ±ÅŁ": 3205,
      "Ġbundan": 3206,
      "Ġboyut": 3207,
      "Ġhassasiyet": 3208,
      "DA": 3209,
      "ij": 3210,
      "kal": 3211,
      "ĠkÃ¼l": 3212,
      "ilo": 3213,
      "imleri": 3214,
      "asta": 3215,
      "ĠÃ¶f": 3216,
      "tematik": 3217,
      "Ġ100": 3218,
      "Ġolmaya": 3219,
      "ĠsÄ±kÄ±ntÄ±": 3220,
      "Ġduyar": 3221,
      "Ġmuay": 3222,
      "mamÄ±": 3223,
      "ĠhakkÄ±na": 3224,
      "Ġkurtul": 3225,
      "ĠatÄ±ÅŁÄ±": 3226,
      "Ġsefer": 3227,
      "Ġkahraman": 3228,
      "65": 3229,
      "70": 3230,
      "bul": 3231,
      "hur": 3232,
      "sinde": 3233,
      "Ä±yla": 3234,
      "ladÄ±ÄŁÄ±": 3235,
      "Ġmiy": 3236,
      "Ġnetic": 3237,
      "rav": 3238,
      "ĠAdet": 3239,
      "ĠKamu": 3240,
      "Ġolmadan": 3241,
      "Ġduruma": 3242,
      "ĠiÅŁtah": 3243,
      "ĠPeki": 3244,
      "ĠakÄ±ntÄ±sÄ±": 3245,
      "ĠsÄ±rtÄ±m": 3246,
      "bileceÄŁim": 3247,
      "Ġacil": 3248,
      "Ġayakta": 3249,
      "ĠsayÄ±sÄ±": 3250,
      "Ġseyre": 3251,
      "Ġseyret": 3252,
      "ĠÄ±ÅŁÄ±k": 3253,
      "Ġsahipt": 3254,
      "ĠvazgeÃ§": 3255,
      "Ġgarip": 3256,
      "ĠKadÄ±n": 3257,
      "Ġyumurta": 3258,
      "ch": 3259,
      "fet": 3260,
      "ĠÃ¼ÅŁ": 3261,
      "ĠbÄ±": 3262,
      "Ġah": 3263,
      "larca": 3264,
      "ĠkatÄ±": 3265,
      "ĠKÃ¼Ã§Ã¼k": 3266,
      "Ä±rÄ±m": 3267,
      "Ġrad": 3268,
      "asyonu": 3269,
      "ĠsaÄŁlÄ±klÄ±": 3270,
      "Ġbenimle": 3271,
      "Ġkusuru": 3272,
      "mada": 3273,
      "ĠkayÄ±": 3274,
      "ĠKÃ¶": 3275,
      "Ġveren": 3276,
      "ĠiÅŁin": 3277,
      "Ġkapa": 3278,
      "masyon": 3279,
      "masÄ±ndan": 3280,
      "Ġkoru": 3281,
      "ĠOnlar": 3282,
      "ĠdoÄŁrudan": 3283,
      "ĠresmÃ®": 3284,
      "ĠalÄ±nmasÄ±": 3285,
      "Ġkronik": 3286,
      "ĠuyuÅŁukluk": 3287,
      "Ġolmazsa": 3288,
      "ĠHiÃ§bir": 3289,
      "ĠmÃ¼dahalenin": 3290,
      "Ġsafra": 3291,
      "ĠÅŁÃ¼ph": 3292,
      "84": 3293,
      "sis": 3294,
      "sÃ¼l": 3295,
      "ĠÃ¼m": 3296,
      "Ġbizi": 3297,
      "ilmektedir": 3298,
      "Ġhatta": 3299,
      "ĠBacak": 3300,
      "Ġnegatif": 3301,
      "Ä±yoruz": 3302,
      "Ġgide": 3303,
      "ĠMes": 3304,
      "ilerinin": 3305,
      "Ġgerektir": 3306,
      "ĠRes": 3307,
      "Ġkonusunu": 3308,
      "Ġpenis": 3309,
      "ormon": 3310,
      "ĠyÃ¼kÃ¼mlÃ¼lÃ¼k": 3311,
      "ĠÃĸzel": 3312,
      "Ġsahibi": 3313,
      "CK": 3314,
      "ida": 3315,
      "kez": 3316,
      "mÄ±": 3317,
      "rim": 3318,
      "yen": 3319,
      "Ä±rÄ±": 3320,
      "Ġban": 3321,
      "Ġdeli": 3322,
      "Ġsiv": 3323,
      "mama": 3324,
      "ĠgÃ¼r": 3325,
      "dak": 3326,
      "urin": 3327,
      "dis": 3328,
      "yorum": 3329,
      "ĠSin": 3330,
      "Ã¼rken": 3331,
      "tih": 3332,
      "ĠsatÄ±r": 3333,
      "ĠTek": 3334,
      "Ä±yorlar": 3335,
      "ĠâĢĶ": 3336,
      "ĠyanÄ±na": 3337,
      "mesinde": 3338,
      "ĠkÃ¶p": 3339,
      "ĠÃ§alÄ±ÅŁÄ±yorum": 3340,
      "Ġedildi": 3341,
      "Ġsanat": 3342,
      "Ġbelirtileri": 3343,
      "Ġtablet": 3344,
      "ĠÃ¶rnek": 3345,
      "Ġgazet": 3346,
      "anÄ±klÄ±ÄŁÄ±": 3347,
      "Ġcezalan": 3348,
      "Ġdepresyon": 3349,
      "ĠalgÄ±nlÄ±ÄŁÄ±": 3350,
      "SÄ°": 3351,
      "dÄ±ndan": 3352,
      "gl": 3353,
      "tesi": 3354,
      "Ġber": 3355,
      "Ġsil": 3356,
      "meler": 3357,
      "ĠyayÄ±": 3358,
      "esinden": 3359,
      "Ġbay": 3360,
      "ĠDev": 3361,
      "ĠYÄ±l": 3362,
      "Ġrast": 3363,
      "Ġverir": 3364,
      "Ġkalb": 3365,
      "Ġcerra": 3366,
      "ĠPar": 3367,
      "eÅŁil": 3368,
      "ĠÅŁiÅŁmesi": 3369,
      "ĠÃ§Ä±kardÄ±": 3370,
      "ĠteÅŁekkÃ¼rler": 3371,
      "ĠbunlarÄ±n": 3372,
      "Ġtemsil": 3373,
      "Ġirin": 3374,
      "ĠsÃ¶ylendi": 3375,
      "ĠÄ±ÅŁÄ±": 3376,
      "Ġsuret": 3377,
      "cut": 3378,
      "itif": 3379,
      "Ä±h": 3380,
      "Ġdoz": 3381,
      "Ġso": 3382,
      "unÃ§": 3383,
      "lasyon": 3384,
      "ĠbaÄŁÄ±": 3385,
      "ĠHiz": 3386,
      "ĠilacÄ±": 3387,
      "Ġyapan": 3388,
      "ĠrÃ¼ya": 3389,
      "Ġelbette": 3390,
      "Ġrah": 3391,
      "mazdÄ±": 3392,
      "Ġdost": 3393,
      "ĠdÃ¼zenlen": 3394,
      "duÄŁum": 3395,
      "ĠendiÅŁe": 3396,
      "Ġgidiyor": 3397,
      "avallÄ±": 3398,
      "caÄŁÄ±z": 3399,
      "Ġreak": 3400,
      "ĠÃĸnce": 3401,
      "Ġfaal": 3402,
      "ĠÃľnite": 3403,
      "ĠbozukluÄŁu": 3404,
      "ĠTedav": 3405,
      "EL": 3406,
      "tma": 3407,
      "Ġdem": 3408,
      "sÄ±l": 3409,
      "omi": 3410,
      "ĠetmiÅŁ": 3411,
      "ĠGene": 3412,
      "ĠhaksÄ±z": 3413,
      "lÄ±ÄŁÄ±nda": 3414,
      "Ġhali": 3415,
      "duÄŁunu": 3416,
      "ĠkorunmasÄ±": 3417,
      "ĠNermin": 3418,
      "fon": 3419,
      "rlÄ±k": 3420,
      "Ġkit": 3421,
      "ĠyÄ±": 3422,
      "Ġala": 3423,
      "Ġhuzur": 3424,
      "Ġip": 3425,
      "ĠÃ§al": 3426,
      "Ġnak": 3427,
      "Ġani": 3428,
      "ĠyaptÄ±k": 3429,
      "bilmesi": 3430,
      "Ġettir": 3431,
      "Ġelde": 3432,
      "ĠaralÄ±k": 3433,
      "ĠÃĸyle": 3434,
      "ĠHerhangi": 3435,
      "ĠbÃ¶lÃ¼m": 3436,
      "Ġkoyu": 3437,
      "Ġihtiyac": 3438,
      "ĠOrta": 3439,
      "Ġicra": 3440,
      "ĠbaÅŁlangÄ±": 3441,
      "PSA": 3442,
      "dek": 3443,
      "drom": 3444,
      "ker": 3445,
      "ksiy": 3446,
      "mÃ¼yor": 3447,
      "vi": 3448,
      "Ġ&": 3449,
      "Ġw": 3450,
      "Ġaile": 3451,
      "unca": 3452,
      "diven": 3453,
      "ĠKaÅŁ": 3454,
      "Ġemek": 3455,
      "ĠbulaÅŁ": 3456,
      "azar": 3457,
      "Ġayr": 3458,
      "Ġcm": 3459,
      "ĠBirden": 3460,
      "bire": 3461,
      "Ġedilmesi": 3462,
      "leyici": 3463,
      "Ġdene": 3464,
      "bileceÄŁini": 3465,
      "takÄ±m": 3466,
      "Ġdiyabet": 3467,
      "ĠTeÅŁekkÃ¼r": 3468,
      "40": 3469,
      "55": 3470,
      "EY": 3471,
      "dar": 3472,
      "np": 3473,
      "rik": 3474,
      "teki": 3475,
      "Ġum": 3476,
      "Ġ,,": 3477,
      "ĠalÄ±yor": 3478,
      "ĠatÄ±l": 3479,
      "mediÄŁim": 3480,
      "elvik": 3481,
      "Ġbaba": 3482,
      "Ġeg": 3483,
      "Ġ27": 3484,
      "ĠgÃ¼neÅŁ": 3485,
      "Ġdurmadan": 3486,
      "ĠsÃ¼rdÃ¼r": 3487,
      "ĠÃĸl": 3488,
      "ĠkarÅŁÄ±laÅŁ": 3489,
      "Ġkendime": 3490,
      "ĠdÃ¼zenli": 3491,
      "ĠKargÄ±": 3492,
      "Ġhepsi": 3493,
      "lamÄ±yorum": 3494,
      "Ġbahsed": 3495,
      "ĠhÃ¼km": 3496,
      "ĠServer": 3497,
      "Ġderecede": 3498,
      "ĠSalim": 3499,
      "Ġcesaret": 3500,
      "89": 3501,
      "UM": 3502,
      "fak": 3503,
      "kil": 3504,
      "ruk": 3505,
      "zyon": 3506,
      "Ġkut": 3507,
      "tat": 3508,
      "Ä±mÄ±z": 3509,
      "ĠSÄ±rt": 3510,
      "âĢĶ": 3511,
      "ĠsavaÅŁ": 3512,
      "Ġmas": 3513,
      "Ġisteyen": 3514,
      "Ġgerekmektedir": 3515,
      "ĠdoÄŁur": 3516,
      "fesÃ¶r": 3517,
      "ĠaÃ§Ä±klama": 3518,
      "mediÄŁini": 3519,
      "Ġbeden": 3520,
      "ĠhÃ¼cre": 3521,
      "ĠkramplarÄ±": 3522,
      "bancÄ±": 3523,
      "ĠSorumluluÄŁu": 3524,
      "Ġsus": 3525,
      "Ġyiye": 3526,
      "Ġacaba": 3527,
      "ĠkalÄ±r": 3528,
      "yat": 3529,
      "ĠgÃ¶rmek": 3530,
      "ĠYÃ¼z": 3531,
      "ĠardÄ±ndan": 3532,
      "ĠtelaÅŁ": 3533,
      "Ġ22": 3534,
      "uyordum": 3535,
      "Ġyandan": 3536,
      "Ġmal": 3537,
      "Ġanlaya": 3538,
      "ĠbÃ¼yÃ¼klÃ¼ÄŁ": 3539,
      "Ġhalinde": 3540,
      "veren": 3541,
      "Ġtabii": 3542,
      "ĠHemen": 3543,
      "ĠkÄ±rÄ±k": 3544,
      "Ġsahiptir": 3545,
      "Ä±htÄ±": 3546,
      "Ġfaaliyet": 3547,
      "ksiyete": 3548,
      "adan": 3549,
      "yum": 3550,
      "ĠdÃ¶": 3551,
      "Ġyir": 3552,
      "âĢ¦": 3553,
      "ĠÃ¶y": 3554,
      "ĠÃ¶ÄŁ": 3555,
      "Ġdava": 3556,
      "ĠAv": 3557,
      "ĠeÄŁer": 3558,
      "olis": 3559,
      "Ġred": 3560,
      "ĠyaÅŁan": 3561,
      "ĠÃ¢": 3562,
      "Ġverdim": 3563,
      "ĠkalmÄ±ÅŁ": 3564,
      "tÄ±rdÄ±": 3565,
      "ĠsÃ¶zÃ¼": 3566,
      "ĠinsanlarÄ±n": 3567,
      "ĠÃ¼zÃ¼l": 3568,
      "ĠyÄ±lÄ±nda": 3569,
      "ĠbaÄŁÄ±rsak": 3570,
      "Ġhissetme": 3571,
      "ograf": 3572,
      "ĠEski": 3573,
      "oksidan": 3574,
      "96": 3575,
      "Bq": 3576,
      "gam": 3577,
      "tra": 3578,
      "Ġderi": 3579,
      "Ġbirer": 3580,
      "ĠyabancÄ±": 3581,
      "ĠmÄ±s": 3582,
      "aliz": 3583,
      "ĠKol": 3584,
      "site": 3585,
      "ĠMah": 3586,
      "Ġ26": 3587,
      "Ġzamandan": 3588,
      "Ġinf": 3589,
      "Ġisten": 3590,
      "Ġteklif": 3591,
      "Ġgirdi": 3592,
      "diÄŁimde": 3593,
      "ĠteÅŁekkÃ¼r": 3594,
      "Ġhizmeti": 3595,
      "ĠeÄŁil": 3596,
      "ĠeÅŁya": 3597,
      "Ġfilan": 3598,
      "ĠarkasÄ±nda": 3599,
      "giliz": 3600,
      "diye": 3601,
      "dÄ±nÄ±z": 3602,
      "sÄ±nÄ±n": 3603,
      "vis": 3604,
      "Ġdiyordu": 3605,
      "laz": 3606,
      "ĠbirtakÄ±m": 3607,
      "eter": 3608,
      "Ġdaya": 3609,
      "ĠEk": 3610,
      "ĠolmamasÄ±": 3611,
      "Ġsoru": 3612,
      "Ġkenar": 3613,
      "uydu": 3614,
      "eceÄŁi": 3615,
      "Ã¼cÃ¼": 3616,
      "ecektir": 3617,
      "Ġbelirli": 3618,
      "ĠmÃ¼dÃ¼r": 3619,
      "ĠAynÄ±": 3620,
      "Ġyeterli": 3621,
      "Ġbeklen": 3622,
      "Ġasit": 3623,
      "Ġsayfa": 3624,
      "Ġbozul": 3625,
      "Ġkimsenin": 3626,
      "Ġrenkli": 3627,
      "ĠdÃ¼ÅŁÃ¼nceler": 3628,
      "Ġlezyon": 3629,
      "ĠKusma": 3630,
      "ĠnÃ¶bet": 3631,
      "26": 3632,
      "85": 3633,
      "gili": 3634,
      "oca": 3635,
      "Ä±cÄ±": 3636,
      "Ġsoy": 3637,
      "Ġaiq": 3638,
      "Ġtor": 3639,
      "Ġib": 3640,
      "ĠHar": 3641,
      "ĠpÄ±htÄ±": 3642,
      "ĠTam": 3643,
      "ĠTop": 3644,
      "Ġbuluna": 3645,
      "ĠgÃ¶zlerini": 3646,
      "ĠkiÅŁiler": 3647,
      "Ġkabar": 3648,
      "Ġkorkuyorum": 3649,
      "ĠaÃ§Ä±kÃ§a": 3650,
      "ĠoluÅŁtu": 3651,
      "taki": 3652,
      "ĠyumuÅŁak": 3653,
      "ĠihtiyaÃ§": 3654,
      "Ġyararlan": 3655,
      "ĠSadece": 3656,
      "ĠtÄ±kan": 3657,
      "Ġmevcut": 3658,
      "ĠKitap": 3659,
      "Ä±rÄ±ltÄ±": 3660,
      "ĠayrÄ±ntÄ±": 3661,
      "mini": 3662,
      "mÄ±yordu": 3663,
      "emde": 3664,
      "uluk": 3665,
      "ĠAc": 3666,
      "Ġfor": 3667,
      "ĠfÄ±k": 3668,
      "Ġform": 3669,
      "makla": 3670,
      "ĠDe": 3671,
      "Ġbende": 3672,
      "ros": 3673,
      "Ġince": 3674,
      "mesinden": 3675,
      "ĠdÃ¼ÅŁÃ¼ndÃ¼m": 3676,
      "ĠyazÄ±k": 3677,
      "ĠkarÅŁÄ±sÄ±nda": 3678,
      "Ġsoluk": 3679,
      "Ġdeng": 3680,
      "eder": 3681,
      "ĠimkÃ¢n": 3682,
      "Ġirade": 3683,
      "formasyon": 3684,
      "ĠÃ¼ni": 3685,
      "Ġpozitif": 3686,
      "ĠAnayasa": 3687,
      "ĠHizmet": 3688,
      "cilik": 3689,
      "Ä±t": 3690,
      "Ã§Ä±k": 3691,
      "Ġsun": 3692,
      "Ġtas": 3693,
      "ledi": 3694,
      "Ġmm": 3695,
      "ĠSor": 3696,
      "ayÄ±m": 3697,
      "Ġbiliyor": 3698,
      "Ġhav": 3699,
      "Ġkendim": 3700,
      "Ġtale": 3701,
      "ĠhaklÄ±": 3702,
      "ĠaklÄ±m": 3703,
      "ĠdÃ¼ÅŁÃ¼nÃ¼yorum": 3704,
      "Ġhastaya": 3705,
      "Ġtane": 3706,
      "ĠÃĸr": 3707,
      "ĠbulunduÄŁu": 3708,
      "ĠsuÃ§un": 3709,
      "Ġbozukluk": 3710,
      "Ġkula": 3711,
      "Ġsizin": 3712,
      "ĠyÃ¼kÃ¼mlÃ¼lÃ¼ÄŁÃ¼": 3713,
      "ĠborÃ§": 3714,
      "ĠsemptomlarÄ±": 3715,
      "ĠrÃ¶ntgen": 3716,
      "!!": 3717,
      "'m": 3718,
      "34": 3719,
      "UK": 3720,
      "aha": 3721,
      "bol": 3722,
      "mg": 3723,
      "sÄ±ndan": 3724,
      "til": 3725,
      "ĠatÄ±ÅŁ": 3726,
      "Ġvir": 3727,
      "Ġtoz": 3728,
      "ĠkatÄ±l": 3729,
      "tÄ±cÄ±": 3730,
      "ĠÃ§iÃ§": 3731,
      "ĠolsaydÄ±": 3732,
      "Ġui": 3733,
      "ĠiÃ§inden": 3734,
      "ĠYayÄ±n": 3735,
      "ĠartÄ±ÅŁ": 3736,
      "ĠÄ°sa": 3737,
      "Ġmatematik": 3738,
      "Ġaktif": 3739,
      "tikÃ§e": 3740,
      "Ġ60": 3741,
      "Ġidr": 3742,
      "Ġsolunum": 3743,
      "mezdi": 3744,
      "Ġeser": 3745,
      "ĠII": 3746,
      "ĠsaldÄ±rÄ±": 3747,
      "Ġherkesin": 3748,
      "Ġbebek": 3749,
      "vuzu": 3750,
      "dok": 3751,
      "ih": 3752,
      "neÄŁin": 3753,
      "Ġav": 3754,
      "Ã¼nÃ¼z": 3755,
      "Ä±klÄ±": 3756,
      "mekle": 3757,
      "Ġeti": 3758,
      "ĠayÄ±nda": 3759,
      "ĠkarÅŁ": 3760,
      "Ġran": 3761,
      "rof": 3762,
      "ĠyarÄ±": 3763,
      "Ġderdi": 3764,
      "Ġkaburga": 3765,
      "ĠsÃ¼redir": 3766,
      "Ġedebilir": 3767,
      "edef": 3768,
      "Ġyaralama": 3769,
      "ĠdolayÄ±sÄ±yla": 3770,
      "ĠcanlÄ±": 3771,
      "ĠSÃ¶zleÅŁ": 3772,
      "ĠÃ¼mit": 3773,
      "Sen": 3774,
      "ag": 3775,
      "to": 3776,
      "Ġca": 3777,
      "ÄŁan": 3778,
      "ĠsÄ±z": 3779,
      "Ġto": 3780,
      "Ġner": 3781,
      "ĠHal": 3782,
      "ĠAh": 3783,
      "Ġep": 3784,
      "Ä±ÅŁÄ±klÄ±k": 3785,
      "ĠDen": 3786,
      "bilim": 3787,
      "Ġvermek": 3788,
      "ĠgelmiÅŁ": 3789,
      "ÄŁÄ±mda": 3790,
      "asÄ±yla": 3791,
      "Ġanlay": 3792,
      "Ġtekn": 3793,
      "Ġburaya": 3794,
      "ĠastÄ±m": 3795,
      "Ġetkisi": 3796,
      "artesi": 3797,
      "ĠDair": 3798,
      "ĠyapÄ±lmasÄ±": 3799,
      "raki": 3800,
      "Ġbirdenbire": 3801,
      "ĠeksikliÄŁi": 3802,
      "ology": 3803,
      "Ġyorul": 3804,
      "ĠNursel": 3805,
      "Ġiltihap": 3806,
      "Ġitibaren": 3807,
      "ĠKaÅŁÄ±ntÄ±": 3808,
      "29": 3809,
      "37": 3810,
      "Al": 3811,
      "EM": 3812,
      "LAR": 3813,
      "fer": 3814,
      "rÃ¼": 3815,
      "Ġ^": 3816,
      "ÄŁÄ±nÄ±n": 3817,
      "Ġkop": 3818,
      "irk": 3819,
      "umhur": 3820,
      "Ġolmuyor": 3821,
      "tacak": 3822,
      "ĠbaÄŁÄ±m": 3823,
      "eydi": 3824,
      "ĠHaya": 3825,
      "lÄ±klar": 3826,
      "ĠDili": 3827,
      "............": 3828,
      "ĠÄ°yi": 3829,
      "ÄŁimin": 3830,
      "ĠkÄ±v": 3831,
      "Ġmerkez": 3832,
      "ĠeÄŁit": 3833,
      "ĠBurada": 3834,
      "ĠsonrasÄ±nda": 3835,
      "ĠTeÅŁekkÃ¼rler": 3836,
      "zersiz": 3837,
      "stanbul": 3838,
      "Ġsebebiyle": 3839,
      "ĠbÃ¼yÃ¼klÃ¼ÄŁÃ¼nde": 3840,
      "cal": 3841,
      "her": 3842,
      "ole": 3843,
      "Ġail": 3844,
      "ĠÃ§en": 3845,
      "ĠÃ§ay": 3846,
      "rada": 3847,
      "amda": 3848,
      "Ġpr": 3849,
      "Ġalk": 3850,
      "idor": 3851,
      "Ġana": 3852,
      "ĠbaÅŁÄ±nda": 3853,
      "ĠGÃ¼l": 3854,
      "Ġverilen": 3855,
      "ĠgeldiÄŁi": 3856,
      "Ġuyar": 3857,
      "ĠsÃ¶zler": 3858,
      "Ġbulunma": 3859,
      "ĠÅŁeker": 3860,
      "Ġdevlet": 3861,
      "ĠhafifÃ§e": 3862,
      "ĠyÃ¼rÃ¼t": 3863,
      "ĠsayÄ±lÄ±": 3864,
      "mÃ¼ÅŁtÃ¼": 3865,
      "Ġverildi": 3866,
      "Ġkimseye": 3867,
      "Ġsekiz": 3868,
      "Ġkaynaklanan": 3869,
      "Ä±rsat": 3870,
      "ĠYoksa": 3871,
      "ĠSayÄ±sÄ±": 3872,
      "Ġmektup": 3873,
      "mayÄ±n": 3874,
      "Ġaktivit": 3875,
      "Ġitiraz": 3876,
      "35": 3877,
      "OS": 3878,
      "Ġdon": 3879,
      "Ã§uk": 3880,
      "Ġyut": 3881,
      "ĠgevÅŁ": 3882,
      "lamÄ±ÅŁ": 3883,
      "lete": 3884,
      "ĠDÄ±ÅŁ": 3885,
      "ĠgÃ¶rdÃ¼": 3886,
      "ĠYol": 3887,
      "ĠÄ°stanbul": 3888,
      "ĠiÅŁlen": 3889,
      "ÄŁÄ±mÄ±n": 3890,
      "elerden": 3891,
      "ĠPer": 3892,
      "ĠamacÄ±": 3893,
      "Ġmeme": 3894,
      "ĠFran": 3895,
      "Ġedilmektedir": 3896,
      "ĠVE": 3897,
      "ĠgÃ¶rÃ¼nce": 3898,
      "Ġprotein": 3899,
      "ĠyaÅŁama": 3900,
      "ĠyÃ¶nelik": 3901,
      "Ġihla": 3902,
      "ĠtÃ¼mÃ¶r": 3903,
      "ĠÃ¶nerin": 3904,
      "Ġgeceleri": 3905,
      "ĠtÄ±kanÄ±klÄ±ÄŁÄ±": 3906,
      "ĠÃľniversit": 3907,
      "Ġ................................................................................................": 3908,
      "Ġgebelik": 3909,
      "Son": 3910,
      "anlar": 3911,
      "irdi": 3912,
      "Ġolamaz": 3913,
      "akk": 3914,
      "Ġtok": 3915,
      "ĠmÃ¼n": 3916,
      "embe": 3917,
      "ĠKÄ±la": 3918,
      "santr": 3919,
      "ĠTan": 3920,
      "Ġnef": 3921,
      "hayat": 3922,
      "ĠgÃ¶rÃ¼yor": 3923,
      "Ä±yorlardÄ±": 3924,
      "Ġsonu": 3925,
      "ĠkalÃ§a": 3926,
      "ĠsaÄŁlÄ±ÄŁÄ±": 3927,
      "Ġindir": 3928,
      "Ġ34": 3929,
      "Ġakl": 3930,
      "ĠdÃ¶nÃ¼ÅŁ": 3931,
      "ĠsÃ¶ylediler": 3932,
      "Ġevet": 3933,
      "Ġmeta": 3934,
      "ĠÃ¼stÃ¼n": 3935,
      "terap": 3936,
      "ĠtoplantÄ±": 3937,
      "Ġbasit": 3938,
      "Ġihti": 3939,
      "ĠIn": 3940,
      "Ġmesele": 3941,
      "Ġsendrom": 3942,
      "suzluk": 3943,
      "ĠgerektiÄŁi": 3944,
      "Ġmisin": 3945,
      "ĠbiÃ§imde": 3946,
      "Ġmusun": 3947,
      "Ġkomplik": 3948,
      "ĠMÃ¼da": 3949,
      "ĠTabi": 3950,
      "ĠÃ¶zgÃ¼r": 3951,
      "ĠÃ¶fk": 3952,
      ",âĢĻ": 3953,
      "acaÄŁÄ±m": 3954,
      "lis": 3955,
      "ula": 3956,
      "yken": 3957,
      "arlar": 3958,
      "Ġbarda": 3959,
      "ĠhikÃ¢y": 3960,
      "Ġhormon": 3961,
      "iyorlardÄ±": 3962,
      "ĠÅŁarkÄ±": 3963,
      "ĠyapÄ±ÅŁ": 3964,
      "Ġaran": 3965,
      "ĠMide": 3966,
      "Ġgelecek": 3967,
      "Ġbulunu": 3968,
      "Ġyerden": 3969,
      "ĠyarÄ±m": 3970,
      "ĠamaÃ§": 3971,
      "ahat": 3972,
      "ilendir": 3973,
      "ĠbÄ±raktÄ±m": 3974,
      "ĠÅŁiÅŁlikler": 3975,
      "versite": 3976,
      "Ġolurdu": 3977,
      "Ġperson": 3978,
      "Ġdoldur": 3979,
      "ĠÃ¶nceki": 3980,
      "ĠAslÄ±nda": 3981,
      "ĠHafif": 3982,
      "ĠÄ°darenin": 3983,
      "ĠGerÃ§ekten": 3984,
      "Ġreaksiyon": 3985,
      "18": 3986,
      "rul": 3987,
      "Ġ...": 3988,
      "Ġkesi": 3989,
      "Ġalama": 3990,
      "Ġkasa": 3991,
      "ason": 3992,
      "Ġnot": 3993,
      "ĠÅŁi": 3994,
      "atan": 3995,
      "Ġpiy": 3996,
      "ĠfÄ±rsat": 3997,
      "Ä±yorsun": 3998,
      "Ġbilmiyor": 3999,
      "ĠYum": 4000,
      "Ã¼lÃ¼": 4001,
      "ĠOÄŁ": 4002,
      "sede": 4003,
      "ĠcÃ¼m": 4004,
      "Ġoran": 4005,
      "muÅŁtur": 4006,
      "fendi": 4007,
      "abuk": 4008,
      "Ġdoktorum": 4009,
      "Ġortam": 4010,
      "diÄŁimiz": 4011,
      "Ġburn": 4012,
      "ĠÄ°ngiliz": 4013,
      "ĠyÃ¼rÃ¼y": 4014,
      "seniz": 4015,
      "Ġdolu": 4016,
      "Ġnitelik": 4017,
      "Ġdiyerek": 4018,
      "Ġkaynaklan": 4019,
      "ĠolmuÅŁtu": 4020,
      "ĠdoÄŁrul": 4021,
      "ĠaraÅŁtÄ±rma": 4022,
      "Bp": 4023,
      "Evet": 4024,
      "IK": 4025,
      "ib": 4026,
      "nan": 4027,
      "oA": 4028,
      "tt": 4029,
      "teri": 4030,
      "var": 4031,
      "ĠkÄ±l": 4032,
      "ira": 4033,
      "ĠyeÅŁil": 4034,
      "ĠkalÄ±": 4035,
      "esiyle": 4036,
      "ĠÅŁah": 4037,
      "amÄ±": 4038,
      "Ä±nÄ±r": 4039,
      "liÄŁini": 4040,
      "ĠzavallÄ±": 4041,
      "ĠTitr": 4042,
      "Ġsonraki": 4043,
      "Ġetmektedir": 4044,
      "Ġuyu": 4045,
      "ĠdÃ¼ÅŁtÃ¼": 4046,
      "Ġbelge": 4047,
      "ĠsÃ¼rÃ¼k": 4048,
      "ĠbaÅŁlayan": 4049,
      "Ġokuy": 4050,
      "Ġkendisi": 4051,
      "ilebilir": 4052,
      "ĠkorkunÃ§": 4053,
      "ĠgeÃ§iriniz": 4054,
      "Ġedecek": 4055,
      "ĠÃ¶nerdi": 4056,
      "Ġantioksidan": 4057,
      "Ġhayvan": 4058,
      "ĠKaynak": 4059,
      "Ġmaruz": 4060,
      "ĠYanÄ±tÄ±nÄ±z": 4061,
      "ĠKÄ±lavuzu": 4062,
      ",'": 4063,
      "75": 4064,
      "AM": 4065,
      "EK": 4066,
      "Her": 4067,
      "tarÄ±": 4068,
      "Ġdes": 4069,
      "ĠdanÄ±ÅŁ": 4070,
      "Ġdudak": 4071,
      "Ġsesi": 4072,
      "malarÄ±": 4073,
      "iliyor": 4074,
      "urdu": 4075,
      "Ä±mdan": 4076,
      "ĠHan": 4077,
      "tiÄŁim": 4078,
      "Ä±rdÄ±m": 4079,
      "Ġpay": 4080,
      "ĠÃ¶nÃ¼ne": 4081,
      "Ġverilerin": 4082,
      "Ġted": 4083,
      "Ġediyordu": 4084,
      "Ġinter": 4085,
      "Ġistiyordu": 4086,
      "lÄ±ÄŁÄ±ndan": 4087,
      "ĠAyak": 4088,
      "Ġhepsini": 4089,
      "Ġyedi": 4090,
      "ĠÃ¼Ã§Ã¼ncÃ¼": 4091,
      "Ġkahveren": 4092,
      "Ġkitle": 4093,
      "Sol": 4094,
      "UL": 4095,
      "basyon": 4096,
      "Â§": 4097,
      "Ġsizi": 4098,
      "imizi": 4099,
      "ura": 4100,
      "aseb": 4101,
      "ĠÃ§Ã¶k": 4102,
      "ĠSaÃ§": 4103,
      "ĠHip": 4104,
      "Ã¼zyon": 4105,
      "ĠbaÅŁlama": 4106,
      "ĠyapmalÄ±yÄ±m": 4107,
      "ĠyerleÅŁtir": 4108,
      "ĠmaÄŁ": 4109,
      "Ġistiyordum": 4110,
      "Ä±sÄ±nda": 4111,
      "masÄ±n": 4112,
      "Ġderec": 4113,
      "Ġedilir": 4114,
      "ĠkiÅŁilerin": 4115,
      "Ġkorku": 4116,
      "ĠaÃ§Ä±klan": 4117,
      "Ġoturdu": 4118,
      "Ġuygunluk": 4119,
      "ĠadÄ±nÄ±": 4120,
      "ĠkanamasÄ±": 4121,
      "ĠgeliÅŁtir": 4122,
      "ĠihtiyacÄ±": 4123,
      "ĠfiilÃ®": 4124,
      "ĠhastasÄ±yÄ±m": 4125,
      "Ġmuhte": 4126,
      "ĠÃ¶lÃ§Ã¼": 4127,
      "Ġdiren": 4128,
      "usuzluk": 4129,
      "Ġsavun": 4130,
      "ĠreÃ§ete": 4131,
      "Ġziyaret": 4132,
      "ĠbaÅŁlangÄ±Ã§": 4133,
      "ĠÃ¶yk": 4134,
      "Ġidrara": 4135,
      "100": 4136,
      "bel": 4137,
      "ĠÄ±": 4138,
      "lemesi": 4139,
      "ĠSkin": 4140,
      "ĠKaf": 4141,
      "ĠpiÅŁ": 4142,
      "landÄ±r": 4143,
      "Ġalmaya": 4144,
      "Ä°Y": 4145,
      "ĠbaÅŁlÄ±yor": 4146,
      "ĠyapmÄ±ÅŁ": 4147,
      "ĠGel": 4148,
      "ilerden": 4149,
      "Ġbuldum": 4150,
      "tÄ±rmak": 4151,
      "Ġboya": 4152,
      "Ġ35": 4153,
      "ĠdÃ¶ng": 4154,
      "ĠVekÃ¢let": 4155,
      "ĠAyhan": 4156,
      "Ġarkada": 4157,
      "elenme": 4158,
      "Ġoyunu": 4159,
      "oloj": 4160,
      "ĠÃ§ocuklar": 4161,
      "ksÃ¼rÃ¼k": 4162,
      "ĠsonuÃ§larÄ±": 4163,
      "ĠbilinÃ§": 4164,
      "ĠgÃ¶revlisi": 4165,
      "ĠUzun": 4166,
      "ĠDiÄŁer": 4167,
      "Ġyiyecek": 4168,
      "ica": 4169,
      "kisi": 4170,
      "ydi": 4171,
      "erÃ§": 4172,
      "ort": 4173,
      "Ġaf": 4174,
      "ĠhÄ±rÄ±ltÄ±": 4175,
      "Ġbirinin": 4176,
      "Ġkalem": 4177,
      "ĠbacaÄŁÄ±m": 4178,
      "ĠKara": 4179,
      "tiÄŁini": 4180,
      "ĠiÃ§ki": 4181,
      "olu": 4182,
      "stik": 4183,
      "ĠgÃ¶rÃ¼yorum": 4184,
      "ĠolduÄŁuna": 4185,
      "elerinde": 4186,
      "ĠsÃ¼rec": 4187,
      "Ä±sÄ±na": 4188,
      "Ä±sÄ±nÄ±n": 4189,
      "yanÄ±n": 4190,
      "Ġishal": 4191,
      "ĠgÃ¶rÃ¼nÃ¼ÅŁ": 4192,
      "Ġtespit": 4193,
      "Ġprog": 4194,
      "elendir": 4195,
      "ĠIÅŁÄ±k": 4196,
      "Ġtestis": 4197,
      "ĠyapÄ±ldÄ±": 4198,
      "ĠBununla": 4199,
      "ĠiyileÅŁme": 4200,
      "Ġmorarma": 4201,
      "romb": 4202,
      "ĠBizim": 4203,
      "ĠKimse": 4204,
      "ĠaydÄ±nlat": 4205,
      "ĠÃ§evresinde": 4206,
      "ĠBÃ¶brek": 4207,
      "ĠkasÄ±k": 4208,
      "ĠDevlet": 4209,
      "Ġegzersiz": 4210,
      "Ġyirmi": 4211,
      "Ġtedbir": 4212,
      "64": 4213,
      "au": 4214,
      "bre": 4215,
      "ept": 4216,
      "lob": 4217,
      "sak": 4218,
      "yak": 4219,
      "Ġkist": 4220,
      "tÄ±ÄŁÄ±nÄ±": 4221,
      "iÅŁtir": 4222,
      "isyon": 4223,
      "ĠKÄ±": 4224,
      "lÄ±klarÄ±": 4225,
      "Ġanksiyete": 4226,
      "ĠTer": 4227,
      "Ġvarsa": 4228,
      "ĠÃ¶ne": 4229,
      "Ã¼len": 4230,
      "Ġederek": 4231,
      "Ġduruyor": 4232,
      "mesin": 4233,
      "opat": 4234,
      "muÅŁum": 4235,
      "aÄŁrÄ±": 4236,
      "Ġbelirlen": 4237,
      "Ġbelirsiz": 4238,
      "Ġgitmek": 4239,
      "Ġyolda": 4240,
      "Ġsahn": 4241,
      "ĠgeÃ§irdi": 4242,
      "ĠAÄŁÄ±r": 4243,
      "tÄ±yordu": 4244,
      "ĠayaÄŁa": 4245,
      "Ġlekeler": 4246,
      "ĠNurhayat": 4247,
      "Ġfiziksel": 4248,
      "ÅŁeyler": 4249,
      "ĠkayÄ±t": 4250,
      "ĠihtiyacÄ±m": 4251,
      "99": 4252,
      "hy": 4253,
      "par": 4254,
      "engin": 4255,
      "ĠhÃ¼r": 4256,
      "aklar": 4257,
      "Ġthe": 4258,
      "ĠmÃ¼z": 4259,
      "Ġedi": 4260,
      "ĠalmÄ±ÅŁ": 4261,
      "ĠDeÄŁ": 4262,
      "ĠvarmÄ±ÅŁ": 4263,
      "ĠMer": 4264,
      "ilerek": 4265,
      "ilerine": 4266,
      "elerinin": 4267,
      "sÄ±zÄ±n": 4268,
      "Ġders": 4269,
      "ĠmÄ±yÄ±m": 4270,
      "Ġsandal": 4271,
      "ĠgÃ¶steren": 4272,
      "Ġoluyordu": 4273,
      "ĠacÄ±yor": 4274,
      "Ġkahv": 4275,
      "ĠhÃ¢lÃ¢": 4276,
      "ĠSanki": 4277,
      "ĠKapÄ±": 4278,
      "ĠÃ§ektirdim": 4279,
      "Ġsivil": 4280,
      "erÃ§ev": 4281,
      "HA": 4282,
      "bj": 4283,
      "hem": 4284,
      "pro": 4285,
      "madÄ±ÄŁÄ±m": 4286,
      "detim": 4287,
      "Ġmin": 4288,
      "ĠgÃ¶l": 4289,
      "ĠKilo": 4290,
      "tip": 4291,
      "Ġzehir": 4292,
      "ĠDemek": 4293,
      "Ä±zlÄ±k": 4294,
      "ĠvarlÄ±ÄŁÄ±": 4295,
      "uslar": 4296,
      "ĠGÃ¶": 4297,
      "Ġ28": 4298,
      "Ġkonsantr": 4299,
      "Ġelek": 4300,
      "trason": 4301,
      "Ġbulunur": 4302,
      "ĠVer": 4303,
      "Ġ65": 4304,
      "Ġhalsizlik": 4305,
      "ĠtakÄ±m": 4306,
      "layÄ±cÄ±": 4307,
      "ĠaÄŁÄ±rlÄ±k": 4308,
      "Ġpencer": 4309,
      "ĠDÃ¼nya": 4310,
      "Ġmiktarda": 4311,
      "Ġsuretiyle": 4312,
      "-:": 4313,
      "33": 4314,
      "67": 4315,
      "98": 4316,
      "amaz": 4317,
      "can": 4318,
      "ome": 4319,
      "Ġ/": 4320,
      "ildiÄŁi": 4321,
      "Ġgru": 4322,
      "latÄ±l": 4323,
      "imli": 4324,
      "ondu": 4325,
      "tÄ±rÄ±l": 4326,
      "ĠÃ§ap": 4327,
      "ĠÃ§erÃ§ev": 4328,
      "ĠÃ¶de": 4329,
      "ĠÅŁik": 4330,
      "ĠsayÄ±m": 4331,
      "ĠiÃ§i": 4332,
      "ĠDum": 4333,
      "Ġetmesi": 4334,
      "ĠolmasÄ±na": 4335,
      "rop": 4336,
      "Ġortak": 4337,
      "Ġyarat": 4338,
      "ĠPSA": 4339,
      "Ġmast": 4340,
      "...âĢĿ": 4341,
      ",,,,,,": 4342,
      "Ġdiyecek": 4343,
      "ĠprofesÃ¶r": 4344,
      "ĠbÃ¶ylece": 4345,
      "ĠteÅŁkil": 4346,
      "Ġterleme": 4347,
      "Ġyapacak": 4348,
      "ĠyavaÅŁÃ§a": 4349,
      "Ġmaddesinde": 4350,
      "ĠyaygÄ±n": 4351,
      "Ġprostat": 4352,
      "Ġtitreme": 4353,
      "Ġolumsuz": 4354,
      "ĠkÃ¼ltÃ¼r": 4355,
      "Yak": 4356,
      "bur": 4357,
      "jeksiyon": 4358,
      "ste": 4359,
      "uÄ±": 4360,
      "ĠÃ¼c": 4361,
      "Ġsosyal": 4362,
      "imize": 4363,
      "ĠbirÅŁeyler": 4364,
      "ĠBe": 4365,
      "ĠÅŁÃ¶yle": 4366,
      "ĠAL": 4367,
      "ĠAdam": 4368,
      "ĠDuy": 4369,
      "ĠkaldÄ±m": 4370,
      "ĠkaldÄ±rÄ±": 4371,
      "Ġkurtar": 4372,
      "esif": 4373,
      "ĠdÃ¶nÃ¼yor": 4374,
      "ĠyÄ±ldan": 4375,
      "ĠbÃ¼yÃ¼me": 4376,
      "ĠmeÅŁ": 4377,
      "inizi": 4378,
      "ĠgÃ¶steriyor": 4379,
      "ĠsuÃ§u": 4380,
      "ment": 4381,
      "ĠyalnÄ±zca": 4382,
      "Ġannem": 4383,
      "ĠsÄ±kÄ±ÅŁma": 4384,
      "ĠEsat": 4385,
      "ĠKork": 4386,
      "ĠSuÃ§un": 4387,
      "ĠYÃ¶netme": 4388,
      "ĠÃ§oÄŁu": 4389,
      "ĠbÄ±Ã§ak": 4390,
      "ĠAvru": 4391,
      "ĠÃ§iÃ§ek": 4392,
      "ĠamacÄ±yla": 4393,
      "Ġkomplikasyon": 4394,
      "ĠÃ¶ykÃ¼sÃ¼": 4395,
      "28": 4396,
      "SaÄŁ": 4397,
      "kek": 4398,
      "kel": 4399,
      "oli": 4400,
      "ps": 4401,
      "ðĿ": 4402,
      "Ä±lÄ±r": 4403,
      "inÃ§": 4404,
      "Ġyalan": 4405,
      "ĠyayÄ±m": 4406,
      "ĠSig": 4407,
      "alt": 4408,
      "ĠÅŁehir": 4409,
      "ĠAz": 4410,
      "sanÄ±n": 4411,
      "ĠGaz": 4412,
      "ĠgÃ¼nlerde": 4413,
      "Ġuyuya": 4414,
      "Ġdurdu": 4415,
      "ĠÅŁeye": 4416,
      "elerine": 4417,
      "uyum": 4418,
      "Ġyaralan": 4419,
      "ĠaklÄ±": 4420,
      "ĠsÃ¶zleri": 4421,
      "ĠaÃ§tÄ±": 4422,
      "Ġkapan": 4423,
      "ift": 4424,
      "ĠistediÄŁi": 4425,
      "Ġbekleme": 4426,
      "Ġdinlen": 4427,
      "ĠsayÄ±da": 4428,
      "ĠhÄ±zla": 4429,
      "ĠrahatsÄ±zlÄ±ÄŁÄ±": 4430,
      "tÄ±ÄŁÄ±mda": 4431,
      "Ġzorunluluk": 4432,
      "ĠDÃ¼zen": 4433,
      "ĠÃ¼cret": 4434,
      "Ã»": 4435,
      "enler": 4436,
      "Ġyeri": 4437,
      "memesi": 4438,
      "Ġtr": 4439,
      "dÄ±ÄŁÄ±nda": 4440,
      "onun": 4441,
      "ĠÃ§abuk": 4442,
      "iÅŁi": 4443,
      "ĠSÃ¼r": 4444,
      "Ġnum": 4445,
      "ĠAcÄ±": 4446,
      "Ġedece": 4447,
      "tic": 4448,
      "liÄŁin": 4449,
      "Ġpul": 4450,
      "Ġyapmaya": 4451,
      "ĠayÄ±r": 4452,
      "ĠGece": 4453,
      "tansiyon": 4454,
      "Ġ37": 4455,
      "Ġanlata": 4456,
      "ĠÅŁiÅŁkinlik": 4457,
      "ĠAnormal": 4458,
      "ĠRÄ±za": 4459,
      "ĠZar": 4460,
      "ĠKendimi": 4461,
      "Ġmaddi": 4462,
      "ĠHakkÄ±": 4463,
      "Ġyaparken": 4464,
      "Ġhesab": 4465,
      "ĠbasÄ±ncÄ±": 4466,
      "ĠkÃ¶tÃ¼l": 4467,
      "Ġsahtecilik": 4468,
      "ĠdÃ¶kÃ¼lmesi": 4469,
      "Ġdenedim": 4470,
      "45": 4471,
      "Bil": 4472,
      "lop": 4473,
      "Ġ;": 4474,
      "ann": 4475,
      "malar": 4476,
      "maÄŁa": 4477,
      "Ġvajinal": 4478,
      "ded": 4479,
      "Ã¼nÃ§": 4480,
      "ĠÅŁiddet": 4481,
      "ĠKav": 4482,
      "Ä±ÅŁÄ±": 4483,
      "omo": 4484,
      "ĠgÃ¶rmÃ¼ÅŁ": 4485,
      "biliyorum": 4486,
      "uyoruz": 4487,
      "eliha": 4488,
      "ĠkÃ¶k": 4489,
      "ĠÃĩar": 4490,
      "ocam": 4491,
      "ĠkiÅŁilik": 4492,
      "ĠgÃ¶rÃ¼nÃ¼yordu": 4493,
      "Ġdos": 4494,
      "Ġtakip": 4495,
      "Ġolursa": 4496,
      "lerimde": 4497,
      "Ġkitab": 4498,
      "ĠgÃ¼ldÃ¼": 4499,
      "Ġdinle": 4500,
      "ĠiliÅŁkisi": 4501,
      "ĠÃ§izg": 4502,
      "ĠKims": 4503,
      "Ġfikir": 4504,
      "ĠkalabalÄ±k": 4505,
      "Ġdemir": 4506,
      "Ġrandev": 4507,
      "akkak": 4508,
      "ĠTitreme": 4509,
      "ĠarkadaÅŁÄ±": 4510,
      "21": 4511,
      "kre": 4512,
      "sÃ¶z": 4513,
      "Ġï": 4514,
      "ĭâĢ": 4515,
      "Ġyola": 4516,
      "meleri": 4517,
      "ĠtÃ¼p": 4518,
      "Ġtali": 4519,
      "lerken": 4520,
      "urur": 4521,
      "izm": 4522,
      "ĠSoÄŁuk": 4523,
      "ĠnÃ¶r": 4524,
      "Ġpsik": 4525,
      "larÄ±ma": 4526,
      "Ä°M": 4527,
      "azm": 4528,
      "usunda": 4529,
      "Ġonlarla": 4530,
      "ĠhastalÄ±ÄŁÄ±n": 4531,
      "ĠtanÄ±sÄ±": 4532,
      "ĠdÃ¼zeyi": 4533,
      "ĠsÃ¶yleye": 4534,
      "ĠkullanÄ±yor": 4535,
      "Ġgirer": 4536,
      "Ġkesesi": 4537,
      "ĠKarÅŁÄ±": 4538,
      "elikle": 4539,
      "ĠkadÄ±nlar": 4540,
      "ĠgÃ¼Ã§lÃ¼": 4541,
      "ĠTÃ¼rkiye": 4542,
      "ĠyaptÄ±ÄŁÄ±m": 4543,
      "Ġnitelendir": 4544,
      "ĠaÅŁk": 4545,
      "ĠkapsamÄ±nda": 4546,
      "Ġmukus": 4547,
      "ĠÃľniversitesi": 4548,
      "47": 4549,
      "Ba": 4550,
      "iÄŁ": 4551,
      "kar": 4552,
      "liyet": 4553,
      "rit": 4554,
      "sul": 4555,
      "yet": 4556,
      "ĠbÃ¼k": 4557,
      "Ġyuvar": 4558,
      "dÄ±yla": 4559,
      "oni": 4560,
      "altÄ±": 4561,
      "tez": 4562,
      "ity": 4563,
      "ayla": 4564,
      "Ã¼mÃ¼ÅŁ": 4565,
      "Ġsonuna": 4566,
      "Ġhale": 4567,
      "Ġetraf": 4568,
      "Ġaram": 4569,
      "Ġrez": 4570,
      "Ġenz": 4571,
      "ĠgeÃ§erli": 4572,
      "Ġyerinden": 4573,
      "siyle": 4574,
      "Ġmali": 4575,
      "Ġgerekiyordu": 4576,
      "emedim": 4577,
      "ĠinsanÄ±": 4578,
      "Ġyakalan": 4579,
      "Ġokul": 4580,
      "Ġservis": 4581,
      "ĠistediÄŁim": 4582,
      "Ġacele": 4583,
      "memi": 4584,
      "ĠBelir": 4585,
      "ĠKurul": 4586,
      "ĠerkeÄŁim": 4587,
      "ĠkaldÄ±rdÄ±": 4588,
      "ĠalÄ±ÅŁkan": 4589,
      "ĠKalp": 4590,
      "Ġibaret": 4591,
      "Ġsendromu": 4592,
      "Ġkahverengi": 4593,
      "uslararasÄ±": 4594,
      "ĠÅŁikayet": 4595,
      "ĠDumrul": 4596,
      "ĠAvrupa": 4597,
      "ON": 4598,
      "UR": 4599,
      "fek": 4600,
      "oterap": 4601,
      "su": 4602,
      "ĠasÄ±l": 4603,
      "Ġkabil": 4604,
      "asal": 4605,
      "âĢ¢": 4606,
      "ĠAp": 4607,
      "ĠaldÄ±ÄŁÄ±": 4608,
      "Ä°n": 4609,
      "Ġbilmem": 4610,
      "ĠYÃ¼k": 4611,
      "ĠinÃ§": 4612,
      "Ã¼ste": 4613,
      "ĠkapalÄ±": 4614,
      "ĠdoÄŁan": 4615,
      "Ġtarafa": 4616,
      "Ġaraya": 4617,
      "ĠmÄ±ydÄ±": 4618,
      "tikten": 4619,
      "leye": 4620,
      "ĠfarkÄ±nda": 4621,
      "oyu": 4622,
      "ĠÃ¶rt": 4623,
      "ĠhapÄ±": 4624,
      "tÄ±rÄ±r": 4625,
      "Ġsistemi": 4626,
      "Ġmusunuz": 4627,
      "ĠuzattÄ±": 4628,
      "//": 4629,
      "://": 4630,
      "AS": 4631,
      "ation": 4632,
      "bine": 4633,
      "cim": 4634,
      "tek": 4635,
      "ang": 4636,
      "eral": 4637,
      "ÄŁiz": 4638,
      "Ġdek": 4639,
      "Ġdelik": 4640,
      "irken": 4641,
      "mali": 4642,
      "ĠSay": 4643,
      "rat": 4644,
      "ĠbuÃ§uk": 4645,
      "Ġpolis": 4646,
      "ĠalÄ±na": 4647,
      "ĠgÃ¶rÃ¼r": 4648,
      "usta": 4649,
      "ĠYet": 4650,
      "ĠkarÄ±sÄ±": 4651,
      "Ġarz": 4652,
      "Ã¼ltÃ¼": 4653,
      "Ġgez": 4654,
      "ĠÃ§Ä±karÄ±": 4655,
      "ĠgÃ¼nden": 4656,
      "Ġbulur": 4657,
      "ĠbulanÄ±k": 4658,
      "ĠsÃ¼ren": 4659,
      "gunluk": 4660,
      "Ġkapat": 4661,
      "Ġinsana": 4662,
      "ekime": 4663,
      "ĠAnti": 4664,
      "ĠÃĸÄŁr": 4665,
      "ĠÃ§ekti": 4666,
      "ĠkÄ±rÄ±l": 4667,
      "ĠkÄ±zÄ±m": 4668,
      "Ġkendisini": 4669,
      "ĠhaftalÄ±k": 4670,
      "ĠIV": 4671,
      "Ġbelirtiler": 4672,
      "ĠZeliha": 4673,
      "elefon": 4674,
      "Ġboyunda": 4675,
      "dÄ±rÄ±lÄ±r": 4676,
      "ĠÃ§arpÄ±ntÄ±": 4677,
      "ĠkemiÄŁi": 4678,
      "Ġmenfa": 4679,
      "ĠdoÄŁrusu": 4680,
      "ĠdÃ¼zelt": 4681,
      "ĠbÃ¼yÃ¼mesi": 4682,
      "Ġbecer": 4683,
      "sÃ¼zlÃ¼k": 4684,
      ",\"": 4685,
      "ET": 4686,
      "dl": 4687,
      "uva": 4688,
      "iroid": 4689,
      "Ġgay": 4690,
      "ĠalÄ±p": 4691,
      "Ġvb": 4692,
      "Ġvek": 4693,
      "Ġbirinci": 4694,
      "ĠBundan": 4695,
      "emiyor": 4696,
      "ĠSÄ±": 4697,
      "okal": 4698,
      "ĠKab": 4699,
      "Ġpak": 4700,
      "Ġzengin": 4701,
      "Ä°T": 4702,
      "Ġfen": 4703,
      "ĠTB": 4704,
      "ĠbaÅŁtan": 4705,
      "ĠaÄŁrÄ±larÄ±m": 4706,
      "Ġsona": 4707,
      "Ġhata": 4708,
      "Ġayda": 4709,
      "ĠyaÅŁÄ±yor": 4710,
      "ĠMil": 4711,
      "ĠNormal": 4712,
      "ĠyansÄ±": 4713,
      "lukla": 4714,
      "ĠsÃ¼reli": 4715,
      "ĠyarÄ±ÅŁ": 4716,
      "enital": 4717,
      "tral": 4718,
      "unamayan": 4719,
      "000": 4720,
      "Ġyolc": 4721,
      "oskop": 4722,
      "duÄŁunda": 4723,
      "Ä±plak": 4724,
      "ĠÃľÃ§": 4725,
      "ĠoluÅŁan": 4726,
      "Ġmerdiven": 4727,
      "Ġyumru": 4728,
      "ĠkitaplarÄ±": 4729,
      "ĠBurhan": 4730,
      "ĠzayÄ±flÄ±ÄŁÄ±": 4731,
      "ĠÃ¶ncesi": 4732,
      "Ġmanevi": 4733,
      "ĠhÃ¼creleri": 4734,
      "Ġtuva": 4735,
      "ĠÃ§Ã¶zÃ¼m": 4736,
      "ĠDÃ¼ÅŁÃ¼k": 4737,
      "ĠbasÄ±nÃ§": 4738,
      "ĠvÃ¼cud": 4739,
      "linik": 4740,
      "hendis": 4741,
      "ĠAdnan": 4742,
      "ĠÅŁiir": 4743,
      "-,": 4744,
      "36": 4745,
      "dÃ¼z": 4746,
      "mer": 4747,
      "oyun": 4748,
      "ts": 4749,
      "yl": 4750,
      "ĠÎ": 4751,
      "Ġab": 4752,
      "Ġhtt": 4753,
      "datif": 4754,
      "imler": 4755,
      "iyal": 4756,
      "Ġbirine": 4757,
      "Ġtit": 4758,
      "Ġtuz": 4759,
      "leti": 4760,
      "umdan": 4761,
      "ĠBas": 4762,
      "Ġnereden": 4763,
      "ĠpeÅŁ": 4764,
      "ĠbaÅŁÄ±": 4765,
      "ĠyapmalÄ±": 4766,
      "ĠarasÄ±na": 4767,
      "ĠOk": 4768,
      "Ġgelip": 4769,
      "Ġ21": 4770,
      "Ġcam": 4771,
      "ĠNerede": 4772,
      "Ġener": 4773,
      "ĠPC": 4774,
      "ĠbakÄ±ma": 4775,
      "ĠtarafÄ±": 4776,
      "ĠyaÅŁamak": 4777,
      "Ġkorkut": 4778,
      "Ġasker": 4779,
      "Ġoysa": 4780,
      "ĠbÃ¶lgede": 4781,
      "ĠsÃ¶yler": 4782,
      "ĠadamÄ±": 4783,
      "ĠyapacaÄŁÄ±mÄ±": 4784,
      "ĠHakk": 4785,
      "saydÄ±m": 4786,
      "Ġbilgilendir": 4787,
      "ĠolabileceÄŁi": 4788,
      "Ġmuhakkak": 4789,
      "Ġtuhaf": 4790,
      "Ġmilyon": 4791,
      "Ġalerj": 4792,
      "Ġbilimsel": 4793,
      "ĠkarÄ±ÅŁÄ±klÄ±ÄŁÄ±": 4794,
      "ĠiÄŁn": 4795,
      "ĠTedavi": 4796,
      "38": 4797,
      "AD": 4798,
      "HayÄ±r": 4799,
      "MER": 4800,
      "ĠkÃ¼t": 4801,
      "Ġdul": 4802,
      "ĠsÃ¼t": 4803,
      "Ġyorum": 4804,
      "meme": 4805,
      "Ġvita": 4806,
      "iyo": 4807,
      "Ġbirini": 4808,
      "etimi": 4809,
      "ase": 4810,
      "yalÄ±m": 4811,
      "izin": 4812,
      "eyse": 4813,
      "ĠÅŁim": 4814,
      "Ä±rp": 4815,
      "Ġetki": 4816,
      "ĠâĢĭâĢ": 4817,
      "Ġtec": 4818,
      "Ġ29": 4819,
      "Ġciv": 4820,
      "ĠmasanÄ±n": 4821,
      "ĠkÄ±zÄ±": 4822,
      "Ġdeneme": 4823,
      "ĠAlman": 4824,
      "Ġoyunun": 4825,
      "Ġ90": 4826,
      "Ġetkilen": 4827,
      "ĠilaÃ§lar": 4828,
      "ĠArif": 4829,
      "ĠolacaktÄ±r": 4830,
      "Ġbilgiler": 4831,
      "Ġhayran": 4832,
      "Ġkoku": 4833,
      "ĠYani": 4834,
      "ĠfaktÃ¶r": 4835,
      "Ġzorunlu": 4836,
      "Ġprostate": 4837,
      "Ġtransformasyon": 4838,
      "sÃ¼lin": 4839,
      "22": 4840,
      "AT": 4841,
      "hoÅŁ": 4842,
      "kÃ¼l": 4843,
      "our": 4844,
      "rek": 4845,
      "yn": 4846,
      "Ġbar": 4847,
      "ina": 4848,
      "ĠdÃ¼r": 4849,
      "Ġdiyorlar": 4850,
      "Ġsom": 4851,
      "Ġolama": 4852,
      "laka": 4853,
      "Ġbirey": 4854,
      "urat": 4855,
      "ĠBEY": 4856,
      "taj": 4857,
      "ĠSp": 4858,
      "denin": 4859,
      "Ġbuz": 4860,
      "lÄ±kta": 4861,
      "Ä°Åŀ": 4862,
      "Ġfurin": 4863,
      "ĠTar": 4864,
      "sif": 4865,
      "Ġaydan": 4866,
      "kadaÅŁ": 4867,
      "Ġgeriye": 4868,
      "ĠGÃ¶k": 4869,
      "ĠMet": 4870,
      "ĠMas": 4871,
      "Ġuydur": 4872,
      "ĠsÃ¼rÃ¼yor": 4873,
      "ĠPen": 4874,
      "ĠÃ¶nceden": 4875,
      "ĠinsanlarÄ±": 4876,
      "ĠdÃ¼zgÃ¼n": 4877,
      "ĠyÃ¼zÃ¼ne": 4878,
      "ĠCumhur": 4879,
      "Ġtedaviyi": 4880,
      "ĠUl": 4881,
      "ĠgÃ¶sterdi": 4882,
      "ĠdÃ¼zenle": 4883,
      "Ġgiderek": 4884,
      "Ġbelirtilen": 4885,
      "ĠsayÄ±n": 4886,
      "ĠsÃ¶zleÅŁmenin": 4887,
      "Ġyapabilir": 4888,
      "Ġyapabilirim": 4889,
      "ĠacÄ±klÄ±": 4890,
      "ĠilaÃ§larÄ±": 4891,
      "Ġkusurlu": 4892,
      "ĠkavuÅŁ": 4893,
      "Ġtahta": 4894,
      "layabilir": 4895,
      "Ġsertlik": 4896,
      "ĠOrgan": 4897,
      "ĠiÃ§eren": 4898,
      "ĠSorumluluk": 4899,
      "Ġsurat": 4900,
      "oxic": 4901,
      "ĠÃ¶ÄŁretmen": 4902,
      "Ġpoli": 4903,
      "ĠiÄŁne": 4904,
      "Ġtakdirde": 4905,
      "Ġdefter": 4906,
      "Ġrady": 4907,
      "ĠyayÄ±lan": 4908,
      "Ġcerrah": 4909,
      "HABA": 4910,
      "!Â»": 4911,
      "Biz": 4912,
      "ata": 4913,
      "don": 4914,
      "ardÄ±m": 4915,
      "ÄŁiyle": 4916,
      "ĠkÃ¶r": 4917,
      "enek": 4918,
      "Ġhedef": 4919,
      "Ġtiyat": 4920,
      "uru": 4921,
      "Ã¼ndeki": 4922,
      "Ġdediler": 4923,
      "Ã¼rÃ¼k": 4924,
      "eyla": 4925,
      "ĠHay": 4926,
      "Ã¼lmÃ¼ÅŁ": 4927,
      "Ġgidip": 4928,
      "ĠvermiÅŁ": 4929,
      "Ġhasar": 4930,
      "ĠÅŁeyleri": 4931,
      "Ã¢h": 4932,
      "ĠsaÄŁlamak": 4933,
      "Ġintih": 4934,
      "Ġmacer": 4935,
      "Ġ36": 4936,
      "ĠÅŁiÅŁme": 4937,
      "ĠtanÄ±n": 4938,
      "ĠsÃ¶yledim": 4939,
      "Ġmesan": 4940,
      "Ġ45": 4941,
      "ĠÃ¶lÃ¼": 4942,
      "Ġokuma": 4943,
      "Ġsaniye": 4944,
      "ĠUn": 4945,
      "Ġprote": 4946,
      "ĠhayatÄ±": 4947,
      "Ġkolda": 4948,
      "Ġistedim": 4949,
      "ĠyaÅŁaya": 4950,
      "Ġ75": 4951,
      "ĠbÃ¶lge": 4952,
      "ĠadamÄ±n": 4953,
      "ĠsinÃ¼s": 4954,
      "ĠKendini": 4955,
      "ĠalanÄ±nda": 4956,
      "Ġtabak": 4957,
      "Ġkrizi": 4958,
      "ĠEnfeksiyon": 4959,
      "Ġmeyhan": 4960,
      "oglob": 4961,
      "ĠyÃ¼kÃ¼mlÃ¼lÃ¼ÄŁ": 4962,
      "Ġyasak": 4963,
      "ĠanlaÅŁÄ±l": 4964,
      "ĠvÃ¼cudum": 4965,
      "----": 4966,
      "anÄ±ÅŁtay": 4967,
      "atit": 4968,
      "ĠfelÃ§": 4969,
      "ĠSinir": 4970,
      "ĠbaÄŁÄ±rÄ±": 4971,
      "ografi": 4972,
      "ĠHareket": 4973,
      "ĠÃ¼niversite": 4974,
      "ĠmaÄŁdur": 4975,
      "rombosit": 4976,
      "Ġedici": 4977,
      "MERHABA": 4978,
      ".'": 4979,
      "93": 4980,
      "Ar": 4981,
      "LER": 4982,
      "bek": 4983,
      "ela": 4984,
      "tuÄŁu": 4985,
      "ust": 4986,
      "vekk": 4987,
      "ww": 4988,
      "Ġx": 4989,
      "era": 4990,
      "Ġkum": 4991,
      "Ġsten": 4992,
      "Ġata": 4993,
      "melen": 4994,
      "Ġhuy": 4995,
      "Ġhekime": 4996,
      "lÄ±dÄ±r": 4997,
      "Ġdam": 4998,
      "Ġdahil": 4999,
      "dandÄ±": 5000,
      "tive": 5001,
      "amÄ±yor": 5002,
      "Ġzonk": 5003,
      "idr": 5004,
      "Ġfot": 5005,
      "ĠTab": 5006,
      "ĠTah": 5007,
      "ĠTCK": 5008,
      "bilmek": 5009,
      "ever": 5010,
      "mÄ±ÅŁÄ±m": 5011,
      "anacak": 5012,
      "Ġonlardan": 5013,
      "Ġverin": 5014,
      "Ġgeldim": 5015,
      "ĠEy": 5016,
      "ĠEÄŁer": 5017,
      "ĠdÃ¼ÅŁtÃ¼m": 5018,
      "meyin": 5019,
      "ĠbÃ¶bre": 5020,
      "emel": 5021,
      "Ġkoruma": 5022,
      "Ġkoridor": 5023,
      "ĠÃ§alÄ±ÅŁÄ±yordu": 5024,
      "larÄ±mla": 5025,
      "Ġduyul": 5026,
      "malÄ±ydÄ±": 5027,
      "Ġtaksir": 5028,
      "Ġhareketi": 5029,
      "ĠÃ§ocuÄŁu": 5030,
      "Ġfarket": 5031,
      "ĠkitabÄ±": 5032,
      "ĠanlattÄ±": 5033,
      "Ãĩok": 5034,
      "ĠOrkan": 5035,
      "ĠaÅŁaÄŁÄ±daki": 5036,
      "ĠmÃ¼mkÃ¼ndÃ¼r": 5037,
      "Ġfilm": 5038,
      "Ġtuta": 5039,
      "ronÅŁ": 5040,
      "ĠkÃ¼Ã§Ã¼m": 5041,
      "ĠâĢĭâĢĭ": 5042,
      "air": 5043,
      "gesi": 5044,
      "nal": 5045,
      "rem": 5046,
      "sinden": 5047,
      "Ġbi": 5048,
      "ĠboÄŁ": 5049,
      "madÄ±ÄŁÄ±nÄ±": 5050,
      "Ġtel": 5051,
      "ĠtÃ¶r": 5052,
      "Ġif": 5053,
      "dÄ±ra": 5054,
      "dÄ±ÅŁÄ±": 5055,
      "leden": 5056,
      "iÅŁim": 5057,
      "emik": 5058,
      "Ã¼rbasyon": 5059,
      "ĠKeli": 5060,
      "Ä±rmÄ±zÄ±": 5061,
      "Ġilgi": 5062,
      "Ġant": 5063,
      "ĠfÄ±": 5064,
      "Ã¼lmesi": 5065,
      "Ġgiden": 5066,
      "ĠyaÅŁlÄ±": 5067,
      "ĠgÃ¼nler": 5068,
      "ĠolmayÄ±": 5069,
      "Ã¢r": 5070,
      "ĠyerleÅŁ": 5071,
      "ĠsÃ¼rÃ¼": 5072,
      "ĠbaktÄ±m": 5073,
      "ĠdÃ¼ÅŁÃ¼nÃ¼r": 5074,
      "ĠFak": 5075,
      "Ġdoktorlar": 5076,
      "ĠgÃ¶sterir": 5077,
      "ĠÃ¼zerindeki": 5078,
      "bileceÄŁimi": 5079,
      "ĠateÅŁim": 5080,
      "Ġsesleri": 5081,
      "ĠalÄ±nan": 5082,
      "ĠgÃ¶ÄŁÃ¼ste": 5083,
      "Ġtaban": 5084,
      "Ġkrem": 5085,
      "Ġregl": 5086,
      "ĠtavÄ±r": 5087,
      "ĠEndiÅŁ": 5088,
      "ĠdayanÄ±lmaz": 5089,
      "Ġkimseyi": 5090,
      "ĠdeÄŁiÅŁiklikler": 5091,
      "ĠÄ±stÄ±ra": 5092,
      "ĠsÃ¶yleyin": 5093,
      "ĠÅŀiÅŁme": 5094,
      "ĠrÄ±zasÄ±": 5095,
      "Ġultrason": 5096,
      "Ġbiyop": 5097,
      "Ġtazminat": 5098,
      "Ġmuayene": 5099,
      "ĠyumurtalÄ±k": 5100,
      "ĠÃĸrneÄŁin": 5101,
      "ĠgevÅŁek": 5102,
      "ĠmÃ¼naseb": 5103,
      "ĠÃ¶lÃ§Ã¼de": 5104,
      "Ġmenfaat": 5105,
      "Ken": 5106,
      "\\\"": 5107,
      "fat": 5108,
      "lÃ¼m": 5109,
      "ĠX": 5110,
      "Ġkuy": 5111,
      "Ġadetim": 5112,
      "mede": 5113,
      "Ġtom": 5114,
      "ĠBa": 5115,
      "ĠÃ§Ä±rp": 5116,
      "ĠmÃ¼ÅŁ": 5117,
      "ĠSÄ±k": 5118,
      "ĠSeni": 5119,
      "ĠSenin": 5120,
      "âĢĵ": 5121,
      "Ġnab": 5122,
      "Ġniyet": 5123,
      "Ã¼kleri": 5124,
      "atÃ¼r": 5125,
      "Ġpre": 5126,
      "ĠbaÅŁlar": 5127,
      "sion": 5128,
      "ĠgÃ¶ren": 5129,
      "Ġkarak": 5130,
      "ĠMuh": 5131,
      "mesiyle": 5132,
      "Ġkanal": 5133,
      "Ġhaklar": 5134,
      "Ġkapak": 5135,
      "Ġyaka": 5136,
      "Ġderler": 5137,
      "ĠgÃ¶zleri": 5138,
      "ĠkullandÄ±m": 5139,
      "Ġ47": 5140,
      "ĠRef": 5141,
      "ĠÃĸksÃ¼rÃ¼k": 5142,
      "ĠbaÅŁlamÄ±ÅŁtÄ±": 5143,
      "Ġyolunda": 5144,
      "mezler": 5145,
      "Ġ80": 5146,
      "ĠkÄ±sÄ±m": 5147,
      "ĠattÄ±": 5148,
      "ĠgÃ¼Ã§lÃ¼k": 5149,
      "ĠKendim": 5150,
      "ĠÄ°ÅŁtah": 5151,
      "amayan": 5152,
      "ĠDoktorum": 5153,
      "ĠKurÅŁ": 5154,
      "ĠdÃ¼nyada": 5155,
      "ĠGenÃ§": 5156,
      "meyeceÄŁini": 5157,
      "ĠkuÅŁk": 5158,
      "ĠkÄ±sÄ±t": 5159,
      "ĠkardeÅŁim": 5160,
      "ĠKÃ¶tÃ¼": 5161,
      "ĠanlayÄ±ÅŁ": 5162,
      "YaklaÅŁÄ±k": 5163,
      "82": 5164,
      "TT": 5165,
      "Yorgunluk": 5166,
      "bak": 5167,
      "cin": 5168,
      "gÃ¼": 5169,
      "mÃ¼n": 5170,
      "pi": 5171,
      "arÄ±nda": 5172,
      "ĠdÃ¢": 5173,
      "Ġdest": 5174,
      "ĠsÃ¼z": 5175,
      "male": 5176,
      "ĠyÄ±r": 5177,
      "orta": 5178,
      "ĠBek": 5179,
      "Ã¼nce": 5180,
      "iÅŁik": 5181,
      "isinden": 5182,
      "Ġdahi": 5183,
      "ĠHenÃ¼z": 5184,
      "ted": 5185,
      "ĠAtay": 5186,
      "omik": 5187,
      "ĠTak": 5188,
      "ĠTaÅŁ": 5189,
      "ĠgÃ¶rdÃ¼ÄŁÃ¼": 5190,
      "ĠÃ¶nemi": 5191,
      "ĠOyun": 5192,
      "uyorlar": 5193,
      "Ġyerini": 5194,
      "ĠsÃ¼rdÃ¼": 5195,
      "Ġ33": 5196,
      "Ġakra": 5197,
      "ĠyÃ¼zÃ¼nÃ¼": 5198,
      "ĠÃ§alÄ±ÅŁtÄ±": 5199,
      "ĠmÄ±rÄ±l": 5200,
      "ĠRuh": 5201,
      "ĠÃ¶zÃ¼r": 5202,
      "Ġhalk": 5203,
      "Ġdeniz": 5204,
      "Ġyetmez": 5205,
      "Ġbekley": 5206,
      "Ġhastane": 5207,
      "Ã¶kÃ¼ntÃ¼": 5208,
      "ĠZaman": 5209,
      "Ġkoydu": 5210,
      "Ġmadd": 5211,
      "ĠodasÄ±na": 5212,
      "Ġtahr": 5213,
      "Ġimza": 5214,
      "Ġrengi": 5215,
      "Ġseyir": 5216,
      "ĠyazÄ±lÄ±": 5217,
      "Ġmantar": 5218,
      "Ġborcu": 5219,
      "meyeceÄŁim": 5220,
      "Ġpost": 5221,
      "dÃ¼ÄŁÃ¼mde": 5222,
      "Ġhamilelik": 5223,
      "Ġkasten": 5224,
      "Ġihlal": 5225,
      "ĠÃ¶zgÃ¼rlÃ¼k": 5226,
      "ĠKaraciÄŁer": 5227,
      "Ġsandaly": 5228,
      "ĠmastÃ¼rbasyon": 5229,
      "ĠHakkÄ±nda": 5230,
      "ĠdÃ¢hil": 5231,
      "!âĢĿ": 5232,
      "BC": 5233,
      "Bana": 5234,
      "aq": 5235,
      "bin": 5236,
      "lok": 5237,
      "oma": 5238,
      "pir": 5239,
      "vel": 5240,
      "ĠâĢĻ": 5241,
      "Ġby": 5242,
      "Ġkg": 5243,
      "ĠgÄ±": 5244,
      "ĠbirleÅŁ": 5245,
      "ĠtÄ±r": 5246,
      "ont": 5247,
      "ĠBp": 5248,
      "ĠBatÄ±": 5249,
      "Ã¼nt": 5250,
      "ĠÃ§oÄŁun": 5251,
      "ĠÃ§ift": 5252,
      "Ġmul": 5253,
      "ĠÅŁur": 5254,
      "amÄ±ÅŁ": 5255,
      "olek": 5256,
      "lÄ±klÄ±": 5257,
      "lÄ±ktan": 5258,
      "ĠalmayÄ±": 5259,
      "ÄŁÄ±z": 5260,
      "ĠyapalÄ±m": 5261,
      "Ġartan": 5262,
      "Ġgecek": 5263,
      "ĠEt": 5264,
      "ĠEsas": 5265,
      "Ġcen": 5266,
      "Ġcil": 5267,
      "uyorsun": 5268,
      "Ġbulan": 5269,
      "Ġkurtu": 5270,
      "Ġistek": 5271,
      "ĠdoÄŁal": 5272,
      "ĠtaramasÄ±": 5273,
      "ĠtaraflÄ±": 5274,
      "ĠtarafÄ±mda": 5275,
      "ĠCilt": 5276,
      "Ġ55": 5277,
      "ĠkullanÄ±": 5278,
      "ĠkullanÄ±lan": 5279,
      "Ġlis": 5280,
      "ĠgÃ¶rÃ¼nÃ¼r": 5281,
      "ĠsanÄ±yorum": 5282,
      "ĠdÄ±ÅŁÄ±": 5283,
      "Ġdeney": 5284,
      "ĠAlt": 5285,
      "talon": 5286,
      "Ġederken": 5287,
      "ĠsalladÄ±": 5288,
      "ÅŁaÄŁÄ±": 5289,
      "Ġetkileri": 5290,
      "Ġmidem": 5291,
      "ĠzararÄ±n": 5292,
      "ĠiliÅŁkili": 5293,
      "action": 5294,
      "ĠsaÃ§ma": 5295,
      "Ġazalt": 5296,
      "Ġbabam": 5297,
      "Ġ2011": 5298,
      "seydim": 5299,
      "Ġmevzu": 5300,
      "Ġuygul": 5301,
      "Ġmillet": 5302,
      "Ġyetkili": 5303,
      "ĠÃ§ocuÄŁum": 5304,
      "ĠdayalÄ±": 5305,
      "ĠMÃ¼dahale": 5306,
      "ĠHangi": 5307,
      "!\",": 5308,
      "46": 5309,
      "?\"": 5310,
      "Beni": 5311,
      "YÃ¼ksek": 5312,
      "dunuz": 5313,
      "ima": 5314,
      "ÅŁÄ±r": 5315,
      "ansÄ±": 5316,
      "Ġdile": 5317,
      "Ġsine": 5318,
      "ore": 5319,
      "orp": 5320,
      "Ġvatan": 5321,
      "ĠtÄ±ra": 5322,
      "Ġtelefon": 5323,
      "ĠBeye": 5324,
      "ĠÃ§ir": 5325,
      "ĠÅŁeh": 5326,
      "Ġetmeye": 5327,
      "ĠYemek": 5328,
      "Ġkardiy": 5329,
      "ĠÄ°h": 5330,
      "ĠOt": 5331,
      "ĠOda": 5332,
      "Ġverecek": 5333,
      "ĠhasarÄ±": 5334,
      "ĠgeldiÄŁini": 5335,
      "Ġkonul": 5336,
      "ĠEÅŁ": 5337,
      "lendi": 5338,
      "Ġenjeksiyon": 5339,
      "ĠiÅŁler": 5340,
      "ĠsaÄŁlan": 5341,
      "ĠsaÄŁlÄ±ÄŁÄ±na": 5342,
      "ĠPK": 5343,
      "trit": 5344,
      "ĠyaklaÅŁtÄ±": 5345,
      "ĠkÃ¶y": 5346,
      "muÅŁtum": 5347,
      "Ġuza": 5348,
      "ĠÃ§alÄ±ÅŁtÄ±m": 5349,
      "ĠsÄ±Ã§": 5350,
      "ĠÃ¶ldÃ¼": 5351,
      "ĠedilmiÅŁtir": 5352,
      "Ġgiren": 5353,
      "ĠÃľl": 5354,
      "ĠettiÄŁim": 5355,
      "ĠgÃ¼lÃ¼nÃ§": 5356,
      "ĠZaten": 5357,
      "ĠadÄ±na": 5358,
      "Ġsub": 5359,
      "Ġref": 5360,
      "ĠhayatÄ±n": 5361,
      "Ġkatlan": 5362,
      "Ġomur": 5363,
      "Ġhapis": 5364,
      "ĠgÃ¶revlisinin": 5365,
      "Ġmahk": 5366,
      "ĠgÃ¼cÃ¼": 5367,
      "ĠKÄ±zarÄ±klÄ±k": 5368,
      "Ġsabit": 5369,
      "Ġkorumak": 5370,
      "Ġtasar": 5371,
      "Ġdosya": 5372,
      "oglobin": 5373,
      "Ġdestek": 5374,
      "77": 5375,
      "DÃ¼ÅŁ": 5376,
      "gal": 5377,
      "muyordu": 5378,
      "pat": 5379,
      "ire": 5380,
      "ektif": 5381,
      "ĠBor": 5382,
      "ĠÃ§or": 5383,
      "dit": 5384,
      "taz": 5385,
      "Ä±mÄ±za": 5386,
      "Ġmon": 5387,
      "ĠHÃ¼s": 5388,
      "ĠKut": 5389,
      "Ġbuy": 5390,
      "sanÄ±z": 5391,
      "ĠbaÅŁÄ±ma": 5392,
      "Ġetmeden": 5393,
      "ĠYer": 5394,
      "kabÄ±": 5395,
      "ĠkadÄ±na": 5396,
      "oÄŁraf": 5397,
      "metr": 5398,
      "Ġbuldu": 5399,
      "Ġyerlerde": 5400,
      "ĠolacaÄŁÄ±nÄ±": 5401,
      "ĠsaÄŁlÄ±ÄŁÄ±nÄ±": 5402,
      "ĠbakÄ±yordu": 5403,
      "Ġhissede": 5404,
      "mayacaÄŁÄ±": 5405,
      "Ġelinden": 5406,
      "ĠkapÄ±nÄ±n": 5407,
      "ĠrazÄ±": 5408,
      "tÄ±ktan": 5409,
      "ĠyÄ±llardÄ±r": 5410,
      "iyorduk": 5411,
      "ĠCan": 5412,
      "ĠaracÄ±": 5413,
      "ĠkullanÄ±l": 5414,
      "ĠÃ§ekil": 5415,
      "mazlar": 5416,
      "ĠkiÅŁiye": 5417,
      "ĠVÃ¼c": 5418,
      "Ġilgisi": 5419,
      "ĠgÃ¶rÃ¼nen": 5420,
      "Ġdoi": 5421,
      "ĠbasmasÄ±": 5422,
      "ediye": 5423,
      "Ġsorunum": 5424,
      "Ġetkil": 5425,
      "Ġresmi": 5426,
      "Ġhizmetin": 5427,
      "Ġtestleri": 5428,
      "Ġreaction": 5429,
      "ĠsonuÃ§lar": 5430,
      "ĠkapÄ±yÄ±": 5431,
      "Ġanlamda": 5432,
      "ĠHukuki": 5433,
      "Ġomurg": 5434,
      "ĠkoÅŁul": 5435,
      "ĠÃĸzben": 5436,
      "ĠmÃ¼dahalede": 5437,
      "Ġdalg": 5438,
      "ĠbabasÄ±": 5439,
      "ĠuzaklaÅŁ": 5440,
      "seydi": 5441,
      "ĠkarÅŁÄ±lÄ±klÄ±": 5442,
      "ĠolmalÄ±dÄ±r": 5443,
      "ĠÅŀiÅŁkinlik": 5444,
      "ĠKonuÅŁ": 5445,
      "ĠbasÄ±nc": 5446,
      "ĠyaÄŁlÄ±": 5447,
      "Ġ................................................................................": 5448,
      "ĠÄ°shal": 5449,
      "ĠhoÅŁlan": 5450,
      "Ġucuz": 5451,
      "Ġgecikmesi": 5452,
      "Ġbalgam": 5453,
      "Ġtalep": 5454,
      "Ġelektrik": 5455,
      "ĠtecrÃ¼": 5456,
      "'s": 5457,
      "AC": 5458,
      "DE": 5459,
      "II": 5460,
      "On": 5461,
      "SH": 5462,
      "ebi": 5463,
      "liyim": 5464,
      "rip": 5465,
      "sim": 5466,
      "yÃ¼z": 5467,
      "int": 5468,
      "ĠdÃ¼ÄŁ": 5469,
      "Ġgurur": 5470,
      "Ã¶l": 5471,
      "ell": 5472,
      "Ġidi": 5473,
      "dÄ±rÄ±l": 5474,
      "ĠkalÄ±yor": 5475,
      "ĠÃ§Ä±plak": 5476,
      "izasyon": 5477,
      "Ġneyin": 5478,
      "ĠAÃ§Ä±k": 5479,
      "Ġpelvik": 5480,
      "ĠTemel": 5481,
      "ĠDil": 5482,
      "ĠYÃ¼r": 5483,
      "ĠOs": 5484,
      "ĠOtur": 5485,
      "ĠMurat": 5486,
      "ĠÃ§Ä±kara": 5487,
      "ĠolmasÄ±n": 5488,
      "Ġduran": 5489,
      "elerinden": 5490,
      "âĢĿ,": 5491,
      "uÄŁun": 5492,
      "Åŀiddetli": 5493,
      "eliÄŁi": 5494,
      "Ġkov": 5495,
      "ific": 5496,
      "ĠÃ§alÄ±ÅŁÄ±yor": 5497,
      "Ġmec": 5498,
      "ĠgittikÃ§e": 5499,
      "ĠLeyla": 5500,
      "ĠOnlarÄ±n": 5501,
      "dÄ±klarÄ±nÄ±": 5502,
      "ĠbaÄŁÄ±r": 5503,
      "ĠyaÅŁadÄ±ÄŁÄ±m": 5504,
      "ĠzararÄ±": 5505,
      "ĠendiÅŁesi": 5506,
      "lamma": 5507,
      "Ġbununla": 5508,
      "ĠKend": 5509,
      "ĠgÃ¶rÃ¼ldÃ¼": 5510,
      "Ġtahmin": 5511,
      "Ġtahlili": 5512,
      "Ġihtiyar": 5513,
      "Ġnokt": 5514,
      "ĠolduklarÄ±": 5515,
      "ĠHanÄ±mÄ±n": 5516,
      "imizin": 5517,
      "ĠUyuÅŁma": 5518,
      "Ġmaksa": 5519,
      "Ġkemoterap": 5520,
      "Ġnoktada": 5521,
      "ĠÅŀiÅŁlik": 5522,
      "ĠkÃ¶tÃ¼ye": 5523,
      "ĠbaÅŁarÄ±lÄ±": 5524,
      "esizlik": 5525,
      "ĠgÃ¼rÃ¼ltÃ¼": 5526,
      "Ġtemsilc": 5527,
      "Ġemekli": 5528,
      "Ġnefret": 5529,
      "ĠKuruluÅŁ": 5530,
      "49": 5531,
      "91": 5532,
      "BÃ¼tÃ¼n": 5533,
      "UN": 5534,
      "dil": 5535,
      "ff": 5536,
      "his": 5537,
      "lini": 5538,
      "ojen": 5539,
      "ttÄ±": 5540,
      "Ġ=": 5541,
      "Ġ................................": 5542,
      "are": 5543,
      "org": 5544,
      "ĠaÅŁÄ±": 5545,
      "lemiÅŁ": 5546,
      "Ġkafes": 5547,
      "ĠÃ§ene": 5548,
      "Ġyatar": 5549,
      "Ä±mÄ±l": 5550,
      "ĠSA": 5551,
      "Ġna": 5552,
      "ulma": 5553,
      "tit": 5554,
      "Ä±nÄ±yor": 5555,
      "ĠaldÄ±ÄŁÄ±m": 5556,
      "Ġettik": 5557,
      "ĠÄ°kinci": 5558,
      "tand": 5559,
      "Ġgeliyordu": 5560,
      "Ġkalmak": 5561,
      "cÄ±lar": 5562,
      "Ġduruyordu": 5563,
      "ĠgeÃ§er": 5564,
      "ĠolayÄ±": 5565,
      "ĠBirlikte": 5566,
      "ĠhafÄ±za": 5567,
      "Ġevine": 5568,
      "ĠkullanÄ±lmasÄ±": 5569,
      "ĠRahat": 5570,
      "Ġilgil": 5571,
      "ĠgÃ¶stermek": 5572,
      "Ġyoluyla": 5573,
      "ĠOnlarÄ±": 5574,
      "diklerini": 5575,
      "ĠkoltuÄŁ": 5576,
      "Ġ70": 5577,
      "Ġhafiflet": 5578,
      "kÃ¼ler": 5579,
      "ĠyapÄ±lacak": 5580,
      "ĠsaldÄ±r": 5581,
      "ĠsalgÄ±": 5582,
      "Ġetkili": 5583,
      "Ġbenzeyen": 5584,
      "lÄ±mÄ±": 5585,
      "ĠkaÃ§Ä±r": 5586,
      "ĠÄ°nsanÄ±n": 5587,
      "Ġverilmesi": 5588,
      "ĠbahÃ§": 5589,
      "ĠkapÄ±ya": 5590,
      "ĠiliÅŁkinin": 5591,
      "adde": 5592,
      "Ġidrarda": 5593,
      "ĠÃ§izgi": 5594,
      "Ġincelen": 5595,
      "ĠÃ¶ncelikle": 5596,
      "Ġazalma": 5597,
      "Ġyasal": 5598,
      "ĠSÃ¶zleÅŁme": 5599,
      "ĠtatlÄ±": 5600,
      "ĠYakÄ±n": 5601,
      "Ġlekelenme": 5602,
      "Ġbekliyor": 5603,
      "ĠÄ±sÄ±rÄ±": 5604,
      "ĠbaÅŁarÄ±sÄ±z": 5605,
      "Ġunsuru": 5606,
      "ĠHamile": 5607,
      "Ġsonucunda": 5608,
      "Ġmezar": 5609,
      "Ġmuayen": 5610,
      "Ġrahim": 5611,
      "âĢ¦âĢ¦": 5612,
      "ĠkabarcÄ±k": 5613,
      "Ġnereye": 5614,
      "ĠeÄŁitim": 5615,
      "ĠkalÄ±cÄ±": 5616,
      "Ġnumara": 5617,
      "ĠKavram": 5618,
      "Ġtiyatro": 5619,
      "79": 5620,
      "88": 5621,
      "Bel": 5622,
      "KÄ±z": 5623,
      "bA": 5624,
      "bor": 5625,
      "kiler": 5626,
      "ml": 5627,
      "muz": 5628,
      "no": 5629,
      "uu": 5630,
      "lev": 5631,
      "urt": 5632,
      "ĠBal": 5633,
      "ĠBoÄŁaz": 5634,
      "izma": 5635,
      "ĠHÃ¼k": 5636,
      "Ġalda": 5637,
      "ĠTut": 5638,
      "Ġbiliyorsun": 5639,
      "ĠYat": 5640,
      "ĠartÄ±": 5641,
      "ĠgidiÅŁ": 5642,
      "ĠGar": 5643,
      "ĠMem": 5644,
      "Ġediyordum": 5645,
      "ĠÃ§Ä±kmasÄ±": 5646,
      "Ġkalmaya": 5647,
      "aÅŁa": 5648,
      "Ġcin": 5649,
      "uyorlardÄ±": 5650,
      "elerle": 5651,
      "ĠolaÄŁan": 5652,
      "ĠyararÄ±": 5653,
      "eÅŁtir": 5654,
      "tÄ±mÄ±": 5655,
      "Ġellerini": 5656,
      "ĠyazdÄ±": 5657,
      "ĠÃ§alÄ±ÅŁÄ±rken": 5658,
      "ebb": 5659,
      "hanet": 5660,
      "Ġsevgil": 5661,
      "osu": 5662,
      "ĠbaÄŁÄ±rdÄ±": 5663,
      "Ġeksp": 5664,
      "Ġkolon": 5665,
      "meliyat": 5666,
      "Ġertesi": 5667,
      "Ġatak": 5668,
      "Ġhizmetleri": 5669,
      "ĠkarÄ±ÅŁtÄ±r": 5670,
      "Ġspor": 5671,
      "Ġodada": 5672,
      "ĠdeÄŁiÅŁikliÄŁi": 5673,
      "Ġsust": 5674,
      "ĠgÃ¶rÃ¼lmektedir": 5675,
      "Ġtahl": 5676,
      "ĠhastalÄ±klarÄ±": 5677,
      "ĠHukuka": 5678,
      "Ġdaral": 5679,
      "layacak": 5680,
      "Ġisterim": 5681,
      "Ġisterdim": 5682,
      "ĠSabah": 5683,
      "ĠmÃ¼dahaleler": 5684,
      "ĠsÄ±caklÄ±k": 5685,
      "ĠakÄ±llÄ±": 5686,
      "Ġalerji": 5687,
      "ĠsabÄ±r": 5688,
      "Ġolumlu": 5689,
      "Ġfelsef": 5690,
      "ĠatÄ±ldÄ±": 5691,
      "ĠOÄŁuz": 5692,
      "ĠKaynaklanan": 5693,
      "ĠcivarÄ±nda": 5694,
      "Ġgecekondu": 5695,
      "ĠtÄ±raÅŁ": 5696,
      "53": 5697,
      "66": 5698,
      "AB": 5699,
      "LÃľ": 5700,
      "dÃ¼n": 5701,
      "leki": 5702,
      "mun": 5703,
      "mur": 5704,
      "oya": 5705,
      "pan": 5706,
      "pon": 5707,
      "plan": 5708,
      "sol": 5709,
      "ski": 5710,
      "ulak": 5711,
      "yarak": 5712,
      "Ġklinik": 5713,
      "larken": 5714,
      "ĠÃ§alÄ±": 5715,
      "ĠSes": 5716,
      "atÃ§Ä±": 5717,
      "lanmÄ±ÅŁtÄ±r": 5718,
      "ĠaÄŁr": 5719,
      "ĠyapmasÄ±": 5720,
      "caÄŁÄ±na": 5721,
      "ĠsÃ¶n": 5722,
      "dirim": 5723,
      "ĠgereÄŁ": 5724,
      "ĠMeh": 5725,
      "baÅŁÄ±": 5726,
      "Ġuyum": 5727,
      "ĠiÅŁleri": 5728,
      "ĠÅŁeyden": 5729,
      "eci": 5730,
      "ĠgeÃ§iyor": 5731,
      "Ġolabil": 5732,
      "mesidir": 5733,
      "Ġyaralanma": 5734,
      "ĠPr": 5735,
      "ĠPan": 5736,
      "Ġ39": 5737,
      "Ġdokuz": 5738,
      "...\",": 5739,
      "ĠyÃ¼zÃ¼": 5740,
      "ĠÃĩev": 5741,
      "Ġ44": 5742,
      "ĠmÃ¼hendis": 5743,
      "ĠmÃ¼vekk": 5744,
      "Ġkaybed": 5745,
      "Ġekst": 5746,
      "Ġkorkusu": 5747,
      "ĠyÃ¶nel": 5748,
      "Ġterci": 5749,
      "ĠmÃ¼daha": 5750,
      "Ġacel": 5751,
      "Ġboylu": 5752,
      "Ġolmaktan": 5753,
      "Ġadres": 5754,
      "ĠgÃ¼ler": 5755,
      "ĠhayatÄ±nÄ±": 5756,
      "Ġmisaf": 5757,
      "Ġdilek": 5758,
      "Ġincele": 5759,
      "ĠErkek": 5760,
      "Ġhangisi": 5761,
      "ĠolmuÅŁtur": 5762,
      "Ġmemnun": 5763,
      "Ġkokusu": 5764,
      "dÃ¼kten": 5765,
      "ĠtÃ¼ken": 5766,
      "ĠÃ¼lkemiz": 5767,
      "ĠÄ°ste": 5768,
      "Ã¼ltesi": 5769,
      "ĠaÃ§Ä±dan": 5770,
      "ĠyukarÄ±da": 5771,
      "ĠÃľstelik": 5772,
      "Ġhipertansiyon": 5773,
      "ĠcezalandÄ±rÄ±lÄ±r": 5774,
      "Ġteknik": 5775,
      "ĠbaÄŁÄ±msÄ±z": 5776,
      "Ġihtimal": 5777,
      "Ġpersonel": 5778,
      "Ġkesici": 5779,
      "ĠKÄ±sa": 5780,
      "ĠhÃ¼rr": 5781,
      "Selim": 5782,
      "budak": 5783,
      "fi": 5784,
      "gÃ¼t": 5785,
      "ham": 5786,
      "Ä±Ä±": 5787,
      "Ġkul": 5788,
      "enf": 5789,
      "Ġsel": 5790,
      "Ġsem": 5791,
      "Ã¶p": 5792,
      "memiÅŁti": 5793,
      "Ġven": 5794,
      "Ġvekil": 5795,
      "Ġhom": 5796,
      "imle": 5797,
      "ĠBoy": 5798,
      "ĠBÄ°R": 5799,
      "Ġolun": 5800,
      "Ä±msÄ±": 5801,
      "isk": 5802,
      "eyz": 5803,
      "danÄ±n": 5804,
      "liÄŁe": 5805,
      "oloÄŁ": 5806,
      "Ġpas": 5807,
      "Ġalmam": 5808,
      "Ġzev": 5809,
      "Ä±zÄ±n": 5810,
      "Ġbilmez": 5811,
      "miÅŁler": 5812,
      "miÅŁlerdi": 5813,
      "Ġrek": 5814,
      "ĠyaÅŁayan": 5815,
      "saf": 5816,
      "ĠdeÄŁeri": 5817,
      "ĠÃ§Ä±kÄ±ÅŁ": 5818,
      "Ġci": 5819,
      "ĠNÃ¶": 5820,
      "ecific": 5821,
      "ĠsÃ¼resi": 5822,
      "Ġmavi": 5823,
      "mayacaÄŁÄ±m": 5824,
      "ĠdÃ¼ÅŁÃ¼nerek": 5825,
      "emem": 5826,
      "ĠyÃ¼zde": 5827,
      "ĠzorluÄŁu": 5828,
      "ĠbÃ¼tÃ¼nlÃ¼ÄŁ": 5829,
      "malÄ±sÄ±n": 5830,
      "dÄ±kÃ§a": 5831,
      "Ġsorunlar": 5832,
      "Ġetkiler": 5833,
      "ĠyÃ¼rÃ¼r": 5834,
      "Ġdikka": 5835,
      "Ġtavsiy": 5836,
      "ĠeÅŁit": 5837,
      "ĠhÃ¢llerde": 5838,
      "Ġbacaklarda": 5839,
      "Ġcancer": 5840,
      "Ġuykusuzluk": 5841,
      "Ġbilinen": 5842,
      "Ġbilinmeyen": 5843,
      "ĠdÃ¼nyaya": 5844,
      "Ġbekliyorum": 5845,
      "ĠKiÅŁisel": 5846,
      "Ġriski": 5847,
      "ĠuluslararasÄ±": 5848,
      "ĠAlbayÄ±m": 5849,
      "Ġkuvvetli": 5850,
      "ĠAnnem": 5851,
      "roskop": 5852,
      "ĠYÃ¶netmeliÄŁi": 5853,
      "ĠÎ»": 5854,
      "ĠmÃ¼nasebet": 5855,
      "Hikmet": 5856,
      "NA": 5857,
      "aui": 5858,
      "ciler": 5859,
      "iu": 5860,
      "miyordum": 5861,
      "nÃ¼": 5862,
      "sÃ¼n": 5863,
      "ĠÃ¼rk": 5864,
      "Ã¼ber": 5865,
      "erler": 5866,
      "erit": 5867,
      "Ġdiler": 5868,
      "Ġduv": 5869,
      "ĠsÃ¼p": 5870,
      "Ġvs": 5871,
      "ikler": 5872,
      "iÅŁan": 5873,
      "Ġmolek": 5874,
      "istan": 5875,
      "ĠgÃ¶st": 5876,
      "Ġuap": 5877,
      "Ġbiliyordu": 5878,
      "ĠYara": 5879,
      "ĠMusta": 5880,
      "Ġtez": 5881,
      "ĠÃ§Ä±ka": 5882,
      "ĠÃ§Ä±kÄ±ntÄ±": 5883,
      "ĠdÃ¼ÅŁt": 5884,
      "Ġolmasa": 5885,
      "ĠolmasÄ±ndan": 5886,
      "Ã¢l": 5887,
      "ĠÂ¦": 5888,
      "Ġsonradan": 5889,
      "Ġinhi": 5890,
      "ĠinsÃ¼lin": 5891,
      "ĠyarÄ±n": 5892,
      "ĠyarÄ±sÄ±": 5893,
      "iplin": 5894,
      "Ġbakarak": 5895,
      "Ġ32": 5896,
      "ĠsÃ¶ze": 5897,
      "Ġtarama": 5898,
      "ĠÅŁiÅŁti": 5899,
      "larÄ±nÄ±z": 5900,
      "Ġevin": 5901,
      "Ġevinde": 5902,
      "ĠgÃ¶zler": 5903,
      "ĠÃĩalÄ±ÅŁ": 5904,
      "ĠkullanÄ±m": 5905,
      "Ġedilebilir": 5906,
      "mazsÄ±n": 5907,
      "ĠÃ¼stÃ¼": 5908,
      "ĠteÅŁebb": 5909,
      "Ġoluyorum": 5910,
      "ĠsÄ±ralarda": 5911,
      "ĠarkadaÅŁlarÄ±": 5912,
      "ĠayakkabÄ±": 5913,
      "Ġspazm": 5914,
      "ĠgÃ¶rÃ¼len": 5915,
      "Ġokumaya": 5916,
      "ĠsokaÄŁa": 5917,
      "ĠsertliÄŁi": 5918,
      "ĠyanÄ±ndaki": 5919,
      "ĠErgun": 5920,
      "Ġmutlak": 5921,
      "ĠgÃ¶revlilerinin": 5922,
      "ĠDÃ¼ÅŁÃ¼nc": 5923,
      "ĠsorumluluÄŁunun": 5924,
      "ĠniteliÄŁi": 5925,
      "ĠgÃ¼lÃ¼msedi": 5926,
      "ĠHegel": 5927,
      "Ġhuzursuzluk": 5928,
      "Ġreddet": 5929,
      "Ġiltihaplanma": 5930,
      "Ġdereceli": 5931,
      "ĠÃ§erÃ§evesinde": 5932,
      "ĠmaksadÄ±yla": 5933,
      ");": 5934,
      "Ak": 5935,
      "GÃ¶ÄŁÃ¼s": 5936,
      "LE": 5937,
      "ao": 5938,
      "idi": 5939,
      "liyor": 5940,
      "ost": 5941,
      "ral": 5942,
      "Ã¼ven": 5943,
      "ĠbronÅŁ": 5944,
      "ĠkÄ±mÄ±l": 5945,
      "Ġsk": 5946,
      "ĠsoÄŁ": 5947,
      "Ġhat": 5948,
      "ĠhÄ±r": 5949,
      "laÃ§": 5950,
      "lÄ±yÄ±m": 5951,
      "ĠmÃ¼k": 5952,
      "ĠSist": 5953,
      "ĠSÄ±ra": 5954,
      "eyerek": 5955,
      "ĠaÄŁzÄ±": 5956,
      "Ġanal": 5957,
      "Ġfolik": 5958,
      "ĠThe": 5959,
      "ĠDiy": 5960,
      "Ġhade": 5961,
      "Ġgibiy": 5962,
      "Ġrica": 5963,
      "ĠÄ°k": 5964,
      "ĠkalmadÄ±": 5965,
      "ĠolmasÄ±nÄ±": 5966,
      "ĠiÅŁit": 5967,
      "ĠhaklarÄ±na": 5968,
      "ĠsÃ¶zÃ¼nÃ¼": 5969,
      "emedi": 5970,
      "ĠAnah": 5971,
      "Ġ54": 5972,
      "ĠgÃ¶ze": 5973,
      "ĠRe": 5974,
      "ĠFa": 5975,
      "inize": 5976,
      "hane": 5977,
      "ĠbÃ¼tÃ¼nlÃ¼ÄŁÃ¼": 5978,
      "Ġtedaviye": 5979,
      "Ġokum": 5980,
      "Ġilgisiz": 5981,
      "Ġparlak": 5982,
      "leyerek": 5983,
      "ĠOnlara": 5984,
      "Ġhaftada": 5985,
      "ĠÃ§Ä±karma": 5986,
      "Ġtoplan": 5987,
      "ĠKarÄ±ÅŁÄ±klÄ±k": 5988,
      "lerimiz": 5989,
      "ĠgÃ¶revi": 5990,
      "Ġedebiy": 5991,
      "ĠÃ¶ÄŁrenci": 5992,
      "Ġhizmetlerinin": 5993,
      "siklop": 5994,
      "ĠanlamÄ±na": 5995,
      "ĠsarhoÅŁ": 5996,
      "Ġdokunul": 5997,
      "ĠÃ§aba": 5998,
      "ĠGÃ¶zbudak": 5999,
      "ĠkÃ¼rek": 6000,
      "ĠbebeÄŁim": 6001,
      "ĠiÅŁlev": 6002,
      "ĠyetiÅŁtir": 6003,
      "ĠDoÄŁru": 6004,
      "Ġoksidatif": 6005,
      "ĠCezai": 6006,
      "Ġadama": 6007,
      "ĠTekrar": 6008,
      "ĠtÄ±kanÄ±klÄ±k": 6009,
      "Ġbardak": 6010,
      "ĠBeyaz": 6011,
      "tandart": 6012,
      "Ġtercih": 6013,
      "73": 6014,
      "LAN": 6015,
      "ct": 6016,
      "fÄ±": 6017,
      "vaz": 6018,
      "zun": 6019,
      "Ġsta": 6020,
      "Ġsit": 6021,
      "Ġoste": 6022,
      "unmasÄ±": 6023,
      "Ġtrav": 6024,
      "Ġtrombosit": 6025,
      "Ġihanet": 6026,
      "ĠBaÄŁ": 6027,
      "asi": 6028,
      ".....": 6029,
      "emiyordu": 6030,
      "isan": 6031,
      "Ġusul": 6032,
      "aydÄ±": 6033,
      "azartesi": 6034,
      "Ġyapmam": 6035,
      "ĠÃ¶nsÃ¶z": 6036,
      "mÄ±ÅŁlar": 6037,
      "anama": 6038,
      "ĠMar": 6039,
      "ĠgÃ¼nÃ¼n": 6040,
      "ĠdÃ¼ÅŁman": 6041,
      "Ġendo": 6042,
      "Ġbulgu": 6043,
      "Ġoraya": 6044,
      "kenin": 6045,
      "Ġ38": 6046,
      "ĠhaklarÄ±nÄ±n": 6047,
      "sÄ±zca": 6048,
      "ĠdÃ¼ÅŁÃ¼nmek": 6049,
      "ĠhastalarÄ±n": 6050,
      "ĠanlatÄ±r": 6051,
      "ĠanlatÄ±yor": 6052,
      "ĠyÄ±lda": 6053,
      "eceksin": 6054,
      "Ġ53": 6055,
      "ĠgÃ¶zlem": 6056,
      "Ġkullanmak": 6057,
      "ĠÃ§ekiyor": 6058,
      "Ġzorlan": 6059,
      "ebek": 6060,
      "ozu": 6061,
      "ĠmÃ¼te": 6062,
      "Ġharf": 6063,
      "osta": 6064,
      "Ġtakv": 6065,
      "ĠistediÄŁini": 6066,
      "Ġcep": 6067,
      "Ġbunlara": 6068,
      "Ġsessiz": 6069,
      "Ġhissetmiyorum": 6070,
      "ĠolmaksÄ±zÄ±n": 6071,
      "ĠzararlÄ±": 6072,
      "ĠboÅŁluÄŁ": 6073,
      "ĠyakÄ±nÄ±nda": 6074,
      "ĠyapÄ±lmÄ±ÅŁ": 6075,
      "Ġkavga": 6076,
      "Ġodaya": 6077,
      "Ġoyuncu": 6078,
      "ĠBurun": 6079,
      "ĠendiÅŁelenmeli": 6080,
      "ĠSizde": 6081,
      "ĠÃ¶ldÃ¼rme": 6082,
      "ronik": 6083,
      "ĠHepsi": 6084,
      "liliÄŁi": 6085,
      "Ġtehlikeli": 6086,
      "Ġoksijen": 6087,
      "Ġkurtulmak": 6088,
      "idayet": 6089,
      "ĠhÃ¼kmÃ¼": 6090,
      "Ġprogram": 6091,
      "ĠZarar": 6092,
      "ĠTBK": 6093,
      "Ġintihar": 6094,
      "ĠfotoÄŁraf": 6095,
      "ĠRefik": 6096,
      "Ã¼berkÃ¼l": 6097,
      "74": 6098,
      "?âĢĻ": 6099,
      "AY": 6100,
      "OK": 6101,
      "SaÃ§": 6102,
      "bal": 6103,
      "bit": 6104,
      "dde": 6105,
      "ebilecek": 6106,
      "mÃ¼yorum": 6107,
      "yÄ±l": 6108,
      "zÄ±m": 6109,
      "Ġâ": 6110,
      "ĠbasÄ±": 6111,
      "erdi": 6112,
      "ĠyÄ±la": 6113,
      "ilim": 6114,
      "Ġaj": 6115,
      "Ġalacak": 6116,
      "las": 6117,
      "umartesi": 6118,
      "urun": 6119,
      "Ġdey": 6120,
      "ĠSÄ±r": 6121,
      "ĠSeÃ§": 6122,
      "Ġnor": 6123,
      "alp": 6124,
      "ĠÃ¶m": 6125,
      "ĠÃ¶t": 6126,
      "ĠAcaba": 6127,
      "Ä±nÄ±zÄ±": 6128,
      "liÄŁinden": 6129,
      "omp": 6130,
      "ĠaldÄ±ktan": 6131,
      "Ġfer": 6132,
      "ĠTÃ¼m": 6133,
      "ĠbaÅŁta": 6134,
      "ĠDiz": 6135,
      "Ã¼mlÃ¼l": 6136,
      "ptan": 6137,
      "usunu": 6138,
      "ĠÃ¶neri": 6139,
      "Ġayn": 6140,
      "Ġkart": 6141,
      "Ã¼ller": 6142,
      "erif": 6143,
      "diren": 6144,
      "ĠOla": 6145,
      "Ġverdiler": 6146,
      "ĠgelmiÅŁti": 6147,
      "Ġgelince": 6148,
      "ĠolduÄŁunda": 6149,
      "ĠdÃ¼ÅŁme": 6150,
      "Ã¢n": 6151,
      "ĠkanÄ±t": 6152,
      "iliÄŁi": 6153,
      "Ġyazmak": 6154,
      "ĠÅŁiÅŁliÄŁi": 6155,
      "Ġevden": 6156,
      "Ġ56": 6157,
      "Ġderg": 6158,
      "Ġisim": 6159,
      "leyi": 6160,
      "ĠbaÅŁkalarÄ±nÄ±n": 6161,
      "ĠÃ¼zerinden": 6162,
      "meliydi": 6163,
      "Ġasla": 6164,
      "ĠkÄ±skan": 6165,
      "ĠendiÅŁel": 6166,
      "Ġgidiyorum": 6167,
      "Ġsaatte": 6168,
      "ĠOlmaz": 6169,
      "ĠyaptÄ±ÄŁÄ±nÄ±": 6170,
      "ĠbakÄ±mdan": 6171,
      "Ġolaylar": 6172,
      "ĠSermet": 6173,
      "ĠtaÅŁÄ±yan": 6174,
      "ofÃ¶r": 6175,
      "deÅŁen": 6176,
      "ĠaydÄ±nlatÄ±l": 6177,
      "ĠHerkesin": 6178,
      "Ġpanik": 6179,
      "Ġseviyeleri": 6180,
      "ĠgÃ¶ÄŁsÃ¼mÃ¼n": 6181,
      "ĠÅŁaÅŁÄ±r": 6182,
      "ĠyanÄ±t": 6183,
      "Ġuzanan": 6184,
      "ĠsÄ±kÄ±cÄ±": 6185,
      "ĠrÄ±zasÄ±nÄ±n": 6186,
      "ĠbaÅŁkasÄ±na": 6187,
      "ĠSafra": 6188,
      "Ġseyred": 6189,
      "ĠResmÃ®": 6190,
      "ĠÃĸzellikle": 6191,
      "ĠgÃ¼rÃ¼lt": 6192,
      "ĠAhmet": 6193,
      "Ġmerkezi": 6194,
      "Ġmuhtemelen": 6195,
      "ournal": 6196,
      "ĠyetmezliÄŁi": 6197,
      "ĠtecrÃ¼b": 6198,
      "ĠMehmet": 6199,
      "72": 6200,
      "76": 6201,
      "?)": 6202,
      "bÃ®": 6203,
      "har": 6204,
      "lim": 6205,
      "Ġbol": 6206,
      "Ġkre": 6207,
      "ĠdÃ¼k": 6208,
      "Ġster": 6209,
      "mamak": 6210,
      "memek": 6211,
      "Ġtay": 6212,
      "lÄ±lÄ±ÄŁÄ±": 6213,
      "ĠBi": 6214,
      "ĠBoÅŁ": 6215,
      "ĠBÄ°L": 6216,
      "ĠÃ§uk": 6217,
      "esel": 6218,
      "ĠAÅŁaÄŁÄ±": 6219,
      "liÄŁine": 6220,
      "Ä±rda": 6221,
      "ĠaÄŁaÃ§": 6222,
      "Ä°ÅŁ": 6223,
      "likler": 6224,
      "ĠbildiÄŁim": 6225,
      "Ã¼lme": 6226,
      "ĠÄ°st": 6227,
      "ĠOrada": 6228,
      "ĠGec": 6229,
      "tanÄ±n": 6230,
      "ĠÃ§Ä±kÄ±ntÄ±sÄ±": 6231,
      "ĠEm": 6232,
      "Ġolmam": 6233,
      "Ġcon": 6234,
      "Ġbulup": 6235,
      "âĢĿ.": 6236,
      "ĠPelvik": 6237,
      "Ã¶rd": 6238,
      "ĠyazÄ±n": 6239,
      "ememe": 6240,
      "ĠÅŁiÅŁkin": 6241,
      "ĠdÃ¶ndÃ¼m": 6242,
      "lardaki": 6243,
      "Ġevi": 6244,
      "ĠCanÄ±m": 6245,
      "ĠgÃ¶zlerle": 6246,
      "ĠÅŀiddetli": 6247,
      "Ġlob": 6248,
      "Ġtedavinin": 6249,
      "sterol": 6250,
      "ĠkÄ±lÄ±": 6251,
      "ĠkÄ±zla": 6252,
      "Ġdoktoru": 6253,
      "ĠUr": 6254,
      "Ġburj": 6255,
      "ĠsuÃ§unu": 6256,
      "Ġkendilerini": 6257,
      "eÄŁe": 6258,
      "ĠoluÅŁum": 6259,
      "Ġters": 6260,
      "Ġsayesinde": 6261,
      "name": 6262,
      "ĠÃ¶ÄŁrendim": 6263,
      "layÄ±p": 6264,
      "ĠKenan": 6265,
      "ĠkarÄ±ÅŁtÄ±": 6266,
      "ĠaÄŁÄ±rlaÅŁ": 6267,
      "ĠboÅŁluk": 6268,
      "neÄŁi": 6269,
      "Ġbilgileri": 6270,
      "Ġtarihinde": 6271,
      "ĠgÃ¼venli": 6272,
      "Ġnoktalar": 6273,
      "ubu": 6274,
      "Ġmutlu": 6275,
      "Ġmutlaka": 6276,
      "Ġdalga": 6277,
      "Ġmekan": 6278,
      "Ġilerle": 6279,
      "Ġamca": 6280,
      "Ġalerjik": 6281,
      "ĠyataÄŁa": 6282,
      "ĠBabam": 6283,
      "Ġpozisyon": 6284,
      "ikÃ¢yet": 6285,
      "ĠboÅŁalma": 6286,
      "ORUM": 6287,
      "Ġbanyo": 6288,
      "Ġsoyut": 6289,
      "ĠTabii": 6290,
      "ĠcÃ¼mle": 6291,
      "ĠdoÄŁrult": 6292,
      "ĠpaylaÅŁ": 6293,
      "ĠsayÄ±mÄ±": 6294,
      "Ġïģ": 6295,
      "ĠsÃ¶yleyebilir": 6296,
      "ĠdÃ¼rÃ¼st": 6297,
      "ĠÄ±stÄ±rap": 6298,
      "ĠÃ§irkin": 6299,
      "39": 6300,
      "BS": 6301,
      "KarÄ±n": 6302,
      "LÄ°": 6303,
      "OT": 6304,
      "Ol": 6305,
      "OÄŁ": 6306,
      "Sev": 6307,
      "cil": 6308,
      "dro": 6309,
      "geni": 6310,
      "kim": 6311,
      "oim": 6312,
      "odu": 6313,
      "seler": 6314,
      "uo": 6315,
      "wn": 6316,
      "ĠÃ¼s": 6317,
      "ardi": 6318,
      "anta": 6319,
      "Ġker": 6320,
      "Ġsark": 6321,
      "Ġabs": 6322,
      "lamÄ±ÅŁtÄ±": 6323,
      "lastik": 6324,
      "Ġtic": 6325,
      "Ġtiroid": 6326,
      "Ġkaba": 6327,
      "ĠBA": 6328,
      "ass": 6329,
      "ess": 6330,
      "ĠdemiÅŁti": 6331,
      "Ġdeyim": 6332,
      "ĠÅŁe": 6333,
      "ĠHaz": 6334,
      "ami": 6335,
      "atma": 6336,
      "Ġaln": 6337,
      "Ġanlar": 6338,
      "Ġanne": 6339,
      "Ġfar": 6340,
      "ĠTest": 6341,
      "Ä±ldÄ±ÄŁÄ±": 6342,
      "azÄ±": 6343,
      "ĠbildiÄŁi": 6344,
      "Ġetmedi": 6345,
      "ĠarasÄ±": 6346,
      "Ã¼ldÃ¼": 6347,
      "ĠgÃ¼nah": 6348,
      "ĠEfendim": 6349,
      "Ġbelgede": 6350,
      "roz": 6351,
      "Ġbakar": 6352,
      "mayacaÄŁÄ±nÄ±": 6353,
      "ĠdÃ¼ÅŁÃ¼nce": 6354,
      "Ġinsanlara": 6355,
      "ĠsÃ¶ylemek": 6356,
      "ĠÃ§alÄ±ÅŁarak": 6357,
      "Ġdert": 6358,
      "Ġ46": 6359,
      "ĠÃ§ekme": 6360,
      "abÄ±": 6361,
      "aber": 6362,
      "Ġiyice": 6363,
      "ĠkÄ±ya": 6364,
      "ĠkÄ±zÄ±n": 6365,
      "malÄ±yÄ±z": 6366,
      "Ġhareketleri": 6367,
      "ĠkabÄ±zlÄ±k": 6368,
      "ĠyaÅŁadÄ±": 6369,
      "vert": 6370,
      "Ġolurum": 6371,
      "Ġhastanede": 6372,
      "ĠettiÄŁini": 6373,
      "Ġbelirtisi": 6374,
      "Ġbitti": 6375,
      "Ä±sÄ±rlÄ±k": 6376,
      "ĠhastasÄ±na": 6377,
      "Ġperde": 6378,
      "ĠkaynaklÄ±": 6379,
      "Ġpenc": 6380,
      "Ġmakin": 6381,
      "ĠÃ¶lÃ¼mÃ¼": 6382,
      "Benim": 6383,
      "ĠkaldÄ±rÄ±l": 6384,
      "ĠkuruluÅŁlarÄ±": 6385,
      "Ġfail": 6386,
      "tÄ±rÄ±yor": 6387,
      "ĠSizin": 6388,
      "Ġciddiye": 6389,
      "Ġgiderken": 6390,
      "ĠHala": 6391,
      "meyeceÄŁi": 6392,
      "laÅŁtÄ±rÄ±l": 6393,
      "Ġpankre": 6394,
      "Ġpantalon": 6395,
      "ĠBÃ¶ylece": 6396,
      "ĠcezasÄ±": 6397,
      "Ġbelgeler": 6398,
      "Ġvakit": 6399,
      "ĠBunlar": 6400,
      "ĠgÃ¶mlek": 6401,
      "ĠyÃ¼rÃ¼dÃ¼": 6402,
      "ĠDost": 6403,
      "ĠparÃ§asÄ±": 6404,
      "ĠfÄ±kra": 6405,
      "irkor": 6406,
      "Ä°nsan": 6407,
      "Ġsomut": 6408,
      "ĠGÃ¶kÃ§": 6409,
      "Ġzonklama": 6410,
      "Ġkuyruk": 6411,
      "Ġkarakter": 6412,
      "ĠKurÅŁun": 6413,
      "ĠvatandaÅŁ": 6414,
      "ĠaÄŁrÄ±nÄ±n": 6415,
      "Ġzevk": 6416,
      "Ġdikkate": 6417,
      "ĠdoÄŁrultusunda": 6418,
      "48": 6419,
      "69": 6420,
      "emeyen": 6421,
      "faÄŁa": 6422,
      "go": 6423,
      "gÃ¶z": 6424,
      "gele": 6425,
      "kon": 6426,
      "kesi": 6427,
      "lon": 6428,
      "liydi": 6429,
      "udum": 6430,
      "val": 6431,
      "Ġerek": 6432,
      "ÅŁembe": 6433,
      "Ġkel": 6434,
      "Ġdan": 6435,
      "irme": 6436,
      "iller": 6437,
      "Ġhe": 6438,
      "ĠtÄ±b": 6439,
      "urlar": 6440,
      "ash": 6441,
      "ĠolmaktadÄ±r": 6442,
      "Ġolunca": 6443,
      "Ġdeh": 6444,
      "ĠmÃ¼r": 6445,
      "ĠSG": 6446,
      "okul": 6447,
      "isiyle": 6448,
      "ĠÅŁar": 6449,
      "ĠHey": 6450,
      "ĠKramp": 6451,
      "ĠKemik": 6452,
      "atik": 6453,
      "Ġpis": 6454,
      "Ġpra": 6455,
      "Ġpap": 6456,
      "Ġusta": 6457,
      "itro": 6458,
      "ÄŁÄ±ma": 6459,
      "ĠbaÅŁa": 6460,
      "Ġbilek": 6461,
      "ĠbileÅŁ": 6462,
      "masÄ±yla": 6463,
      "Ġgebe": 6464,
      "ĠMa": 6465,
      "ĠMart": 6466,
      "ĠÃ§Ä±kmaktadÄ±r": 6467,
      "ĠÃ§Ä±kacak": 6468,
      "ĠiÅŁlenmesi": 6469,
      "ÄŁÄ±mÄ±": 6470,
      "ĠsÃ¼reÃ§": 6471,
      "Ġgereksiz": 6472,
      "Ġ31": 6473,
      "Ġelinde": 6474,
      "ĠkapÄ±l": 6475,
      "Ġkole": 6476,
      "Ġinsanlarla": 6477,
      "ezer": 6478,
      "Ġdurumun": 6479,
      "larÄ±nÄ±zÄ±": 6480,
      "ĠyÄ±llar": 6481,
      "Ġarab": 6482,
      "Ã¼stÃ¼": 6483,
      "larÄ±mÄ±zÄ±": 6484,
      "ruf": 6485,
      "ĠedilmiÅŁ": 6486,
      "Ġlira": 6487,
      "ĠgÃ¶rÃ¼ndÃ¼": 6488,
      "ĠkÄ±zar": 6489,
      "sellik": 6490,
      "leyh": 6491,
      "Ġdevr": 6492,
      "Ġhekimler": 6493,
      "lamÄ±yor": 6494,
      "Ġbenziyor": 6495,
      "Ġdinleme": 6496,
      "ĠyaratÄ±k": 6497,
      "Ġtemin": 6498,
      "ĠeÄŁlen": 6499,
      "Ġkahve": 6500,
      "ĠhastasÄ±nÄ±n": 6501,
      "ĠanlamÄ±": 6502,
      "Ġsars": 6503,
      "ĠyÃ¼kÃ¼mlÃ¼": 6504,
      "ĠoÄŁlu": 6505,
      "leks": 6506,
      "ĠiyileÅŁtir": 6507,
      "Ġkafam": 6508,
      "emezdi": 6509,
      "ĠÄ±srar": 6510,
      "ĠDÃ¼ÅŁÃ¼n": 6511,
      "Ġvurdu": 6512,
      "ĠdurumundadÄ±r": 6513,
      "ĠhÃ¼kÃ¼mler": 6514,
      "ĠProsta": 6515,
      "ĠdÃ¼ÄŁÃ¼mleri": 6516,
      "ĠOnunla": 6517,
      "ĠkalmamÄ±ÅŁtÄ±": 6518,
      "Ġistemiyor": 6519,
      "Ġyumurt": 6520,
      "ĠkÄ±sÄ±rlÄ±k": 6521,
      "doi": 6522,
      "Ġkesinlikle": 6523,
      "ĠniteliÄŁinde": 6524,
      "ĠSafter": 6525,
      "Ġnakli": 6526,
      "ĠMahke": 6527,
      "Ġalkol": 6528,
      "Ġkonsantrasyon": 6529,
      "Ġgrup": 6530,
      "omobil": 6531,
      "ĠYÃ¼kÃ¼mlÃ¼l": 6532,
      "Ġhttps": 6533,
      "ĠFakÃ¼ltesi": 6534,
      "ĠBorÃ§": 6535,
      "ĠMustafa": 6536,
      "cik": 6537,
      "dÄ±nÄ±": 6538,
      "ko": 6539,
      "liy": 6540,
      "nem": 6541,
      "tme": 6542,
      "yt": 6543,
      "ymÄ±ÅŁ": 6544,
      "arlan": 6545,
      "Ġduya": 6546,
      "Ġstandart": 6547,
      "Ġyiy": 6548,
      "iliyordu": 6549,
      "Ġaleyh": 6550,
      "imar": 6551,
      "Ġtren": 6552,
      "Ġtetik": 6553,
      "Ġkalama": 6554,
      "ĠBizi": 6555,
      "etici": 6556,
      "Ġmidir": 6557,
      "ĠSab": 6558,
      "ĠAt": 6559,
      "ĠKah": 6560,
      "Ġsat": 6561,
      "ĠiÃ§ini": 6562,
      "atÄ±n": 6563,
      "Ġpop": 6564,
      "Ġpeki": 6565,
      "Ä±lmÄ±ÅŁtÄ±r": 6566,
      "ĠDÃ¶kÃ¼ntÃ¼": 6567,
      "ĠgÃ¶rdÃ¼ÄŁÃ¼m": 6568,
      "Ġbilen": 6569,
      "Ġbilme": 6570,
      "ĠkararÄ±": 6571,
      "miÅŁim": 6572,
      "lerime": 6573,
      "Ġgelmez": 6574,
      "ĠolduÄŁumuz": 6575,
      "ĠÃ§Ä±ktÄ±m": 6576,
      "ĠBirliÄŁi": 6577,
      "ĠBirÃ§ok": 6578,
      "uÄŁa": 6579,
      "uÄŁunu": 6580,
      "Ġkayn": 6581,
      "ĠhastalÄ±ÄŁÄ±m": 6582,
      "ĠdÃ¼zeni": 6583,
      "ezi": 6584,
      "Ġdurumum": 6585,
      "ĠBenden": 6586,
      "eref": 6587,
      "ĠaraÃ§": 6588,
      "Ġ58": 6589,
      "ĠkullanÄ±mÄ±": 6590,
      "Ġ48": 6591,
      "Ġ49": 6592,
      "bayÄ±": 6593,
      "abey": 6594,
      "ĠVek": 6595,
      "Ġdola": 6596,
      "Ġ62": 6597,
      "dikÃ§e": 6598,
      "Ġhaline": 6599,
      "ĠkonuÅŁmak": 6600,
      "Ġhayata": 6601,
      "Ġserum": 6602,
      "duÄŁumda": 6603,
      "aria": 6604,
      "veriÅŁ": 6605,
      "Ġ105": 6606,
      "ĠoluÅŁumu": 6607,
      "Ġ99": 6608,
      "Ġmesleki": 6609,
      "Ġsesini": 6610,
      "Ġizlen": 6611,
      "ĠyÃ¼rÃ¼rken": 6612,
      "Ġhizmetlerinden": 6613,
      "Ġolmakla": 6614,
      "ĠkaÃ§Ä±n": 6615,
      "Ġsebebi": 6616,
      "Ġtestler": 6617,
      "Ġverilir": 6618,
      "Ġkitaplar": 6619,
      "ĠodasÄ±nda": 6620,
      "amaÅŁÄ±r": 6621,
      "Ġantigen": 6622,
      "ĠkapÄ±dan": 6623,
      "Ġokudum": 6624,
      "Ġbeyn": 6625,
      "Ġsakin": 6626,
      "ĠyararlÄ±": 6627,
      "Ġsigar": 6628,
      "ĠÃ¼lser": 6629,
      "Ġhang": 6630,
      "Ġmaddesi": 6631,
      "Ġdakik": 6632,
      "Ġotob": 6633,
      "ĠkuruluÅŁlarÄ±nda": 6634,
      "Ġmikro": 6635,
      "Ġgerekirse": 6636,
      "ĠÃ§adÄ±r": 6637,
      "ĠÃ§atÄ±ÅŁ": 6638,
      "ĠgÃ¶ÄŁsÃ¼mde": 6639,
      "ĠProf": 6640,
      "Ġgiyin": 6641,
      "ĠkÃ¼rs": 6642,
      "ĠYardÄ±m": 6643,
      "ĠsorumluluÄŁunu": 6644,
      "Ġfakir": 6645,
      "ĠnÃ¶ro": 6646,
      "ĠNazÄ±m": 6647,
      "ĠiltihabÄ±": 6648,
      "ĠÃ§ekingen": 6649,
      "ĠÅŁÃ¼phelen": 6650,
      "ĠBacaklarda": 6651,
      "ĠkorunmasÄ±z": 6652,
      "Ġbulunuyor": 6653,
      "ĠaydÄ±nlatma": 6654,
      "protein": 6655,
      "ĠSigara": 6656,
      "ĠÃĩarp": 6657,
      "Ġpaket": 6658,
      "ĠNeredeyse": 6659,
      "Ġtasarruf": 6660,
      "ĠHÃ¼snÃ¼": 6661,
      "42": 6662,
      "62": 6663,
      "Siz": 6664,
      "bo": 6665,
      "ho": 6666,
      "rol": 6667,
      "ĠðĿ": 6668,
      "ÅŁap": 6669,
      "irim": 6670,
      "organ": 6671,
      "ĠhÄ±rs": 6672,
      "ladÄ±k": 6673,
      "onomik": 6674,
      "Ġkalacak": 6675,
      "ĠBul": 6676,
      "tÄ±p": 6677,
      "ĠÃ§iÄŁ": 6678,
      "ĠyatÄ±ÅŁ": 6679,
      "ĠSem": 6680,
      "ĠSÄ±na": 6681,
      "ĠSize": 6682,
      "Ġbadem": 6683,
      "Ġdaima": 6684,
      "ĠÅŁÃ¶": 6685,
      "ĠHÃ¼c": 6686,
      "ĠAya": 6687,
      "ĠAÄŁÄ±z": 6688,
      "ĠKirkor": 6689,
      "Ġzih": 6690,
      "Ġanlamaz": 6691,
      "ĠTara": 6692,
      "Ġyaparak": 6693,
      "ptik": 6694,
      "ĠvarlÄ±k": 6695,
      "Ġetik": 6696,
      "ĠetmiÅŁti": 6697,
      "Ġkarma": 6698,
      "Ġ110": 6699,
      "ĠÄ°laÃ§": 6700,
      "Ġonay": 6701,
      "ĠGit": 6702,
      "ĠGeri": 6703,
      "ĠyaÅŁta": 6704,
      "ĠMor": 6705,
      "laÅŁtÄ±r": 6706,
      "ÄŁimden": 6707,
      "ĠgeÃ§ici": 6708,
      "Ġzamanki": 6709,
      "Ġolabilecek": 6710,
      "Ġistis": 6711,
      "Ġistiyorsun": 6712,
      "eceÄŁiz": 6713,
      "tÄ±mda": 6714,
      "Ġeller": 6715,
      "ĠdÃ¼ÅŁÃ¼nme": 6716,
      ",,,,,,,,": 6717,
      "ĠyaktÄ±": 6718,
      "ĠyakÄ±ÅŁ": 6719,
      "ĠbÃ¼yÃ¼mÃ¼ÅŁ": 6720,
      "Ġgenetik": 6721,
      "ĠaralarÄ±nda": 6722,
      "ĠsÄ±ÄŁ": 6723,
      "Ġderdim": 6724,
      "ĠÅŀekil": 6725,
      "ĠbaÅŁladÄ±ÄŁÄ±": 6726,
      "ĠkiÅŁilere": 6727,
      "Ġlok": 6728,
      "Ġokur": 6729,
      "Ġgirdim": 6730,
      "ĠsanÄ±rÄ±m": 6731,
      "ĠBildir": 6732,
      "Ġortada": 6733,
      "dikal": 6734,
      "Ġhalka": 6735,
      "ĠÃ§Ä±karmak": 6736,
      "Ġdenir": 6737,
      "Ġhareketler": 6738,
      "Ġisteme": 6739,
      "ĠisteÄŁi": 6740,
      "Ġdevrim": 6741,
      "Ġbunlardan": 6742,
      "Ġoturur": 6743,
      "Ġoturup": 6744,
      "ĠyapÄ±lÄ±r": 6745,
      "ĠyapÄ±labilir": 6746,
      "Ġterk": 6747,
      "ĠsÃ¶zleÅŁmesinin": 6748,
      "ĠarkadaÅŁlar": 6749,
      "madÄ±lar": 6750,
      "ĠkÄ±smÄ±nÄ±": 6751,
      "Ġkusursuz": 6752,
      "Ġokuya": 6753,
      "ĠiliÅŁkiye": 6754,
      "Ġsizlere": 6755,
      "ĠdavranÄ±ÅŁÄ±": 6756,
      "ĠkatkÄ±": 6757,
      "Ġdayanan": 6758,
      "ĠÄ°liÅŁ": 6759,
      "Ġbirbirlerine": 6760,
      "Ġtarif": 6761,
      "Ġikisi": 6762,
      "ĠarkasÄ±": 6763,
      "Ġotuz": 6764,
      "Ġfailin": 6765,
      "ĠÄ±slak": 6766,
      "ĠaykÄ±rÄ±lÄ±k": 6767,
      "ĠdalgÄ±n": 6768,
      "ĠkurallarÄ±": 6769,
      "ĠhÃ¼cresi": 6770,
      "ĠgÃ¼lÃ¼msey": 6771,
      "Ġkramplar": 6772,
      "ĠHava": 6773,
      "ĠDurum": 6774,
      "Ġkolayca": 6775,
      "ĠdÃ¼ÄŁÃ¼mlerinin": 6776,
      "ĠÃ§ocuÄŁun": 6777,
      "ĠyÄ±ka": 6778,
      "ĠdaÄŁÄ±lÄ±m": 6779,
      "ĠBÃ¶lÃ¼m": 6780,
      "Ġbeslen": 6781,
      "ĠÄ°dare": 6782,
      "ĠNazmi": 6783,
      "ĠÃ§aÄŁÄ±r": 6784,
      "ĠÄ°drarda": 6785,
      "Ġinceleme": 6786,
      "ĠduyarlÄ±": 6787,
      "ĠÃ¼ÅŁÃ¼me": 6788,
      "Ġradyo": 6789,
      "ĠHayat": 6790,
      "Ġkasaba": 6791,
      "ĠSÃ¼rekli": 6792,
      "ĠkÃ¶tÃ¼lÃ¼k": 6793,
      "Ġyuvarlak": 6794,
      "Ġenzim": 6795,
      "Ġservise": 6796,
      "ĠSaygÄ±": 6797,
      "oskopi": 6798,
      "ĠnabÄ±z": 6799,
      "ĠKendimizi": 6800,
      "Ġkemoterapi": 6801,
      "Ġduvara": 6802,
      "Ã¼berkÃ¼loz": 6803,
      "78": 6804,
      "Efendim": 6805,
      "ESÄ°": 6806,
      "GeÃ§": 6807,
      "GTT": 6808,
      "Kim": 6809,
      "Ta": 6810,
      "bÃ¶": 6811,
      "ck": 6812,
      "gÃ¼ne": 6813,
      "iS": 6814,
      "mm": 6815,
      "oh": 6816,
      "qu": 6817,
      "tiniz": 6818,
      "ĠÃ¼y": 6819,
      "ÅŁal": 6820,
      "ÅŁÄ±rma": 6821,
      "anda": 6822,
      "Ġduda": 6823,
      "iri": 6824,
      "malama": 6825,
      "Ġgenital": 6826,
      "lamanÄ±n": 6827,
      "iyel": 6828,
      "iyesi": 6829,
      "Ġica": 6830,
      "ledim": 6831,
      "ĠBize": 6832,
      "Ã¼nnet": 6833,
      "Ġdedik": 6834,
      "Ġmiydi": 6835,
      "emiÅŁ": 6836,
      "ĠSak": 6837,
      "ĠSah": 6838,
      "Ġni": 6839,
      "alik": 6840,
      "ĠgÃ¶bek": 6841,
      "ĠÅŁef": 6842,
      "ĠÅŁikÃ¢yet": 6843,
      "ĠAmeliyat": 6844,
      "ĠKaÃ§": 6845,
      "tid": 6846,
      "Ġbula": 6847,
      "atÃ¶r": 6848,
      "Ġpazar": 6849,
      "ĠalgÄ±": 6850,
      "Ġfe": 6851,
      "ĠTem": 6852,
      "ĠDik": 6853,
      "ĠDÃ¶n": 6854,
      "ĠDep": 6855,
      "Ġsonsuz": 6856,
      "Ġgib": 6857,
      "ĠÄ°m": 6858,
      "ĠOcak": 6859,
      "ĠOlarak": 6860,
      "ĠkadÄ±nÄ±": 6861,
      "baha": 6862,
      "Ã¼ter": 6863,
      "ĠgÃ¼ndÃ¼z": 6864,
      "ĠEde": 6865,
      "ĠEve": 6866,
      "ĠEfendi": 6867,
      "ĠNeyse": 6868,
      "cÄ±lÄ±k": 6869,
      "Ġoradan": 6870,
      "ĠkuruÅŁ": 6871,
      "opati": 6872,
      "ĠsÃ¶zlerini": 6873,
      "ĠeleÅŁtir": 6874,
      "Ġraf": 6875,
      "Ġevli": 6876,
      "ĠÃĸlÃ¼": 6877,
      "Ġispat": 6878,
      "Ġbelirgin": 6879,
      "ĠVajinal": 6880,
      "ĠÃ¼stlen": 6881,
      "ĠLenf": 6882,
      "ĠsanÄ±yordum": 6883,
      "Ġhaftadan": 6884,
      "Ġtuttu": 6885,
      "ĠAysel": 6886,
      "Ġkolumda": 6887,
      "ĠyaÅŁamaya": 6888,
      "Ġ85": 6889,
      "ĠÃľzer": 6890,
      "ĠendiÅŁeli": 6891,
      "ĠKanser": 6892,
      "ĠZayÄ±f": 6893,
      "ĠyÃ¼rÃ¼me": 6894,
      "ĠalÄ±ndÄ±": 6895,
      "ĠadlÄ±": 6896,
      "ÃľK": 6897,
      "ĠdeÄŁerleri": 6898,
      "ĠHaksÄ±z": 6899,
      "Ġanlatmak": 6900,
      "Ġdisiplin": 6901,
      "ĠGÃ¼ner": 6902,
      "Ġtarihi": 6903,
      "ĠolaylarÄ±": 6904,
      "ĠazalmasÄ±": 6905,
      "ubin": 6906,
      "Ġmorf": 6907,
      "ĠanlaÅŁÄ±": 6908,
      "ĠyayÄ±n": 6909,
      "ĠgÃ¶tÃ¼rdÃ¼": 6910,
      "Ġkaybettim": 6911,
      "Ġbelgeyi": 6912,
      "Ġkanuni": 6913,
      "Ġkelimeler": 6914,
      "Ġtepki": 6915,
      "ĠgeÃ§miÅŁim": 6916,
      "ĠBunlarÄ±n": 6917,
      "ĠBabasÄ±": 6918,
      "ĠkÃ¶tÃ¼leÅŁiyor": 6919,
      "ĠdÃ¼zeyde": 6920,
      "Ġaptalca": 6921,
      "ĠcezalandÄ±rÄ±l": 6922,
      "Ġcerrahi": 6923,
      "Ġaniden": 6924,
      "ĠmÄ±sra": 6925,
      "ĠkarÅŁÄ±mÄ±za": 6926,
      "ĠSÃ¶zleÅŁmesi": 6927,
      "ĠdÃ¶ngÃ¼sÃ¼": 6928,
      "ĠaramÄ±zda": 6929,
      "Ġenerji": 6930,
      "ĠtÃ¶ren": 6931,
      "ĠantlaÅŁma": 6932,
      "ontoloji": 6933,
      "ĠÃ§oÄŁunlukla": 6934,
      "ĠkÄ±mÄ±lda": 6935,
      "Ġnormale": 6936,
      "Ã¶rdÃ¼ncÃ¼": 6937,
      "Fakat": 6938,
      "Hasta": 6939,
      "SÄ±rt": 6940,
      "Uy": 6941,
      "alar": 6942,
      "col": 6943,
      "gn": 6944,
      "gr": 6945,
      "lor": 6946,
      "liyorum": 6947,
      "ogen": 6948,
      "terek": 6949,
      "ug": 6950,
      "yÄ±k": 6951,
      "yper": 6952,
      "Ġlif": 6953,
      "ane": 6954,
      "Ġdiyet": 6955,
      "Ġgrip": 6956,
      "Ġalarak": 6957,
      "Ġaman": 6958,
      "Ġvurg": 6959,
      "Ġhor": 6960,
      "Ġob": 6961,
      "eker": 6962,
      "elli": 6963,
      "ĠBoz": 6964,
      "asÄ±z": 6965,
      "ĠÃ§Ä±l": 6966,
      "ĠÃ§ekim": 6967,
      "Ġmir": 6968,
      "ĠSu": 6969,
      "ĠStr": 6970,
      "istik": 6971,
      "Ġbaca": 6972,
      "ĠgÃ¶v": 6973,
      "ĠHidayet": 6974,
      "ĠKÃ¢ÄŁÄ±": 6975,
      "Ġec": 6976,
      "tihan": 6977,
      "ĠiÃ§iyorum": 6978,
      "ĠiÃ§imde": 6979,
      "Ä±rlar": 6980,
      "omber": 6981,
      "Ġalmakta": 6982,
      "ĠalÃ§ak": 6983,
      "Ġfalan": 6984,
      "ĠTanÄ±": 6985,
      "ĠTPSA": 6986,
      "ĠToxic": 6987,
      "ĠneÅŁ": 6988,
      "likleri": 6989,
      "Ġetkin": 6990,
      "Ġettiler": 6991,
      "ĠYaÄŁ": 6992,
      "ĠkalmÄ±ÅŁtÄ±": 6993,
      "metli": 6994,
      "ĠsaÄŁlam": 6995,
      "undaki": 6996,
      "Ġmasal": 6997,
      "Ä±sal": 6998,
      "Ġaktar": 6999,
      "ĠdÃ¼ÅŁÃ¼ndÃ¼ÄŁÃ¼m": 7000,
      "Ġkoca": 7001,
      "ĠinsanlÄ±k": 7002,
      "ĠCT": 7003,
      "Ġ500": 7004,
      "Ġisti": 7005,
      "ĠedildiÄŁi": 7006,
      "Ġbulundur": 7007,
      "ĠbaÅŁlaya": 7008,
      "ĠkarÅŁÄ±ya": 7009,
      "Ġgitmeye": 7010,
      "lemi": 7011,
      "Ġ67": 7012,
      "dÄ±ÄŁÄ±mÄ±z": 7013,
      "meliydim": 7014,
      "Ġoyuna": 7015,
      "ĠkÄ±smen": 7016,
      "Ġhekimlerin": 7017,
      "Ġoturuyordu": 7018,
      "ĠyÃ¶nlendir": 7019,
      "Ġihmal": 7020,
      "Ġgetirmek": 7021,
      "Ġzarara": 7022,
      "ĠhakkÄ±n": 7023,
      "Ġederler": 7024,
      "ĠdÃ¼nyanÄ±n": 7025,
      "ĠÄ°nsanlar": 7026,
      "ĠkavuÅŁtur": 7027,
      "ĠeÄŁildi": 7028,
      "Ġediyorlar": 7029,
      "ĠhÃ¢lde": 7030,
      "ĠuyandÄ±m": 7031,
      "ĠsakÄ±n": 7032,
      "Ġheykel": 7033,
      "Ġ2007": 7034,
      "ĠaÅŁaÄŁÄ±lÄ±k": 7035,
      "ĠkafasÄ±nda": 7036,
      "ĠiÃ§erisinde": 7037,
      "ĠkuruluÅŁlarÄ±nÄ±n": 7038,
      "Ġmutfak": 7039,
      "Ġmorluk": 7040,
      "lÃ¼ÄŁe": 7041,
      "ĠAÄŁrÄ±lÄ±": 7042,
      "tivity": 7043,
      "ĠsÃ¶yleyerek": 7044,
      "kÃ¢r": 7045,
      "ĠKasten": 7046,
      "ĠzorundadÄ±r": 7047,
      "ĠEvde": 7048,
      "duklarÄ±": 7049,
      "ĠKiÅŁinin": 7050,
      "ĠÅŁartlar": 7051,
      "ĠgiriÅŁim": 7052,
      "ĠhoÅŁgÃ¶r": 7053,
      "Ġyataktan": 7054,
      "ĠYavaÅŁ": 7055,
      "ektomi": 7056,
      "Ġraporu": 7057,
      "Ġmasaya": 7058,
      "Ġitiraf": 7059,
      "ĠGenellikle": 7060,
      "ĠtartÄ±ÅŁma": 7061,
      "ijama": 7062,
      "ĠsÄ±rtÄ±mda": 7063,
      "Ġgerektiren": 7064,
      "ĠdÃ¶v": 7065,
      "lazma": 7066,
      "ĠfÄ±kr": 7067,
      "ĠYayÄ±nevi": 7068,
      "ĠalkÄ±ÅŁ": 7069,
      "ĠpiÅŁman": 7070,
      "Ġvekilin": 7071,
      "ĠUnsur": 7072,
      "ĠMÃ¼dahaleden": 7073,
      "Ġhomur": 7074,
      "Ġgibiydi": 7075,
      "OÄŁlum": 7076,
      "ÅŁallah": 7077,
      "61": 7078,
      "DEN": 7079,
      "Er": 7080,
      "HiÃ§": 7081,
      "PT": 7082,
      "US": 7083,
      "alarÄ±n": 7084,
      "basÄ±": 7085,
      "del": 7086,
      "doÄŁ": 7087,
      "hum": 7088,
      "iui": 7089,
      "run": 7090,
      "top": 7091,
      "ÅŁi": 7092,
      "ÅŁiÅŁ": 7093,
      "ĠkÄ±ÅŁ": 7094,
      "ĠkeÅŁ": 7095,
      "Ġdet": 7096,
      "ĠasÄ±": 7097,
      "Ġbirinde": 7098,
      "aklÄ±": 7099,
      "lediÄŁi": 7100,
      "Ã¼nÃ¼r": 7101,
      "eten": 7102,
      "taÅŁ": 7103,
      "ĠdediÄŁi": 7104,
      "izde": 7105,
      "emli": 7106,
      "ĠSosyal": 7107,
      "Ġnaz": 7108,
      "Ġbat": 7109,
      "Ã¼ri": 7110,
      "ĠAS": 7111,
      "ĠAb": 7112,
      "ĠKes": 7113,
      "ĠKÄ±sÄ±rlÄ±k": 7114,
      "ĠsatÄ±n": 7115,
      "atinin": 7116,
      "Ġpembe": 7117,
      "ith": 7118,
      "Ġanj": 7119,
      "Ġfas": 7120,
      ",,,": 7121,
      "ĠbaÅŁÄ±mÄ±": 7122,
      "ĠgÃ¶rÃ¼le": 7123,
      "ĠyapÄ±yordu": 7124,
      "bilen": 7125,
      "ĠvarlÄ±ÄŁÄ±nÄ±": 7126,
      "usun": 7127,
      "ĠYah": 7128,
      "dÄ±rmak": 7129,
      "Ġret": 7130,
      "ĠÄ°y": 7131,
      "ĠGeb": 7132,
      "ĠGÃ¼nde": 7133,
      "ĠMon": 7134,
      "ĠMay": 7135,
      "ĠMut": 7136,
      "Ġverileri": 7137,
      "Ġtemas": 7138,
      "Ġgelmesi": 7139,
      "Ġgelmedi": 7140,
      "Ġolmayacak": 7141,
      "ĠNit": 7142,
      "ĠbuluÅŁ": 7143,
      "ĠzamanÄ±nda": 7144,
      "Ġindi": 7145,
      "Ã¼yÃ¼": 7146,
      "ĠbÃ¶cek": 7147,
      "Ä±sra": 7148,
      "ĠyazÄ±lmÄ±ÅŁ": 7149,
      "Ġnedense": 7150,
      "ĠanlatÄ±": 7151,
      "siyonu": 7152,
      "ĠyÃ¼zÃ¼me": 7153,
      "ĠyÄ±llÄ±k": 7154,
      "ĠyÄ±llarda": 7155,
      "ĠyÄ±llarca": 7156,
      "lÄ±yordum": 7157,
      "ĠÃ§ekir": 7158,
      "mazlÄ±k": 7159,
      "ĠmÃ¼sa": 7160,
      "ĠsÄ±kÄ±l": 7161,
      "ĠgÃ¶rÃ¼ntÃ¼": 7162,
      "ĠgÃ¶sterdiÄŁi": 7163,
      "ĠgÃ¶sterilmiÅŁtir": 7164,
      "ĠSonuÃ§": 7165,
      "ĠbaÄŁlantÄ±": 7166,
      "mezdim": 7167,
      "ĠtutulmasÄ±": 7168,
      "ĠtakÄ±ldÄ±": 7169,
      "ĠkonuÅŁtu": 7170,
      "ĠsuÃ§unun": 7171,
      "Ġkendilerine": 7172,
      "ĠtaÅŁlarÄ±": 7173,
      "ĠyÃ¶nt": 7174,
      "Ġgetiren": 7175,
      "ĠgetirdiÄŁi": 7176,
      "Ġolabilirdi": 7177,
      "ĠgÃ¼lÃ¼yor": 7178,
      "bral": 7179,
      "layÄ±sÄ±yla": 7180,
      "ĠDoku": 7181,
      "ĠgÃ¶rÃ¼lÃ¼r": 7182,
      "ĠgeliÅŁme": 7183,
      "dÄ±rÄ±yor": 7184,
      "ĠGÃ¼neÅŁ": 7185,
      "ĠsabahlarÄ±": 7186,
      "ĠKural": 7187,
      "Ġomz": 7188,
      "Ġikiye": 7189,
      "ĠbaÄŁlÄ±dÄ±r": 7190,
      "ĠarkasÄ±ndan": 7191,
      "ĠkaÅŁÄ±ntÄ±lÄ±": 7192,
      "Ġlead": 7193,
      "ĠbabasÄ±nÄ±n": 7194,
      "ĠartmasÄ±": 7195,
      "ĠkurallarÄ±na": 7196,
      "Ġmens": 7197,
      "ĠoluÅŁturan": 7198,
      "ĠKarÄ±ncalanma": 7199,
      "Ġmeselesi": 7200,
      "ĠBakan": 7201,
      "ebilmesi": 7202,
      "ĠYargÄ±": 7203,
      "2016": 7204,
      "Ġyatakta": 7205,
      "ĠdÃ¼zensizliÄŁi": 7206,
      "ĠalÄ±rken": 7207,
      "Ġaktivite": 7208,
      "ĠkavramÄ±": 7209,
      "Ġyetersiz": 7210,
      "________": 7211,
      "ĠkahramanÄ±": 7212,
      "Ġseyreder": 7213,
      "ĠdÃ¼zenlenmiÅŁtir": 7214,
      "ĠÃ¶ÄŁleden": 7215,
      "ĠÃ¢ÅŁÄ±k": 7216,
      "ĠAcil": 7217,
      "ĠIII": 7218,
      "ĠyÃ¼rÃ¼yÃ¼ÅŁ": 7219,
      "Ġsivilce": 7220,
      "ĠkomplikasyonlarÄ±": 7221,
      "ĠaklÄ±ma": 7222,
      "ĠkitabÄ±n": 7223,
      "Ġmesane": 7224,
      "ĠÃľlk": 7225,
      "ĠgereÄŁince": 7226,
      "ĠAnahtarÄ±": 7227,
      "ĠokumuÅŁ": 7228,
      "Ġburjuva": 7229,
      "ĠGÃ¶kÃ§in": 7230,
      "Ã¼tercim": 7231,
      "43": 7232,
      "IR": 7233,
      "aS": 7234,
      "ala": 7235,
      "acaÄŁÄ±": 7236,
      "beri": 7237,
      "cÄ±nÄ±n": 7238,
      "ibr": 7239,
      "mÃ¼yordu": 7240,
      "neme": 7241,
      "pu": 7242,
      "yar": 7243,
      "Ġmekte": 7244,
      "Ġdiyorum": 7245,
      "Ġsuy": 7246,
      "Ġseh": 7247,
      "Ġsuyu": 7248,
      "ilmesini": 7249,
      "Ġvas": 7250,
      "dÄ±ma": 7251,
      "ĠBar": 7252,
      "ĠBer": 7253,
      "Ġdejen": 7254,
      "ĠSU": 7255,
      "iste": 7256,
      "Ġbaz": 7257,
      "raz": 7258,
      "ĠÅŁeref": 7259,
      "ĠKulak": 7260,
      "liÄŁinin": 7261,
      "lanÄ±yor": 7262,
      "lanarak": 7263,
      "Ã¼zg": 7264,
      "Ġilac": 7265,
      "ĠalmaktadÄ±r": 7266,
      "ĠDan": 7267,
      "usuna": 7268,
      "Ġetmem": 7269,
      "ĠYukarÄ±": 7270,
      "kaÅŁ": 7271,
      "ĠOGTT": 7272,
      "ĠGÃ¼ven": 7273,
      "ĠMan": 7274,
      "ĠMek": 7275,
      "ĠMÃ¼z": 7276,
      "Ġveriyorum": 7277,
      "Ġveriler": 7278,
      "Ġverebilir": 7279,
      "ĠÃ§Ä±kmÄ±ÅŁ": 7280,
      "ĠkaldÄ±ÄŁÄ±": 7281,
      "ĠNec": 7282,
      "metre": 7283,
      "ĠiÅŁini": 7284,
      "ĠiÅŁleme": 7285,
      "Ġzamanla": 7286,
      "Ġyerleri": 7287,
      "Ġkurulan": 7288,
      "Ã¼ydÃ¼": 7289,
      "ĠbakÄ±yor": 7290,
      "ĠakÄ±ÅŁ": 7291,
      "Ġeline": 7292,
      "Ġeliyle": 7293,
      "ĠyazdÄ±ÄŁÄ±": 7294,
      "ĠyakÄ±ndan": 7295,
      "Ġkoruy": 7296,
      "tÄ±klarÄ±": 7297,
      "Ġ57": 7298,
      "Ġisk": 7299,
      "ĠÃ¶lmÃ¼ÅŁ": 7300,
      "ĠaltÄ±ndan": 7301,
      "Ġbelirsizlik": 7302,
      "ĠduyduÄŁu": 7303,
      "ĠparayÄ±": 7304,
      "Ġiddi": 7305,
      "ĠhemÅŁ": 7306,
      "ĠBeyi": 7307,
      "Ġtutmak": 7308,
      "Ġyeten": 7309,
      "ĠsuÃ§lar": 7310,
      "Ġ102": 7311,
      "ĠÃľz": 7312,
      "eÄŁinin": 7313,
      "Ġotururken": 7314,
      "Ġdiv": 7315,
      "Ġadamlar": 7316,
      "Ġsenden": 7317,
      "ĠÃ§ocuklarÄ±": 7318,
      "lamÄ±yordu": 7319,
      "ĠbozulmasÄ±": 7320,
      "ĠalÄ±nmÄ±ÅŁ": 7321,
      "Ġtekrarlayan": 7322,
      "Ġkral": 7323,
      "Ġkrit": 7324,
      "ĠanlamsÄ±z": 7325,
      "Ġperd": 7326,
      "Ġapart": 7327,
      "Ġdise": 7328,
      "tÄ±yorum": 7329,
      "ĠbÃ¶lgesi": 7330,
      "ĠbÃ¶lgemde": 7331,
      "lattÄ±": 7332,
      "Ġomurga": 7333,
      "ĠhatÄ±rlÄ±yorum": 7334,
      "ĠhatÄ±rlaya": 7335,
      "Ġherkese": 7336,
      "Ġ2006": 7337,
      "Ġkafamda": 7338,
      "ĠmutfaÄŁa": 7339,
      "tÄ±rÄ±cÄ±": 7340,
      "Ġgazete": 7341,
      "Ġ2010": 7342,
      "Ġgarson": 7343,
      "Ġbezi": 7344,
      "ĠÅŁaÅŁkÄ±n": 7345,
      "ĠsorumluluÄŁun": 7346,
      "Ġduygusal": 7347,
      "STEM": 7348,
      "ĠAmerik": 7349,
      "ĠWil": 7350,
      "Ġbecerik": 7351,
      "Ġbiriktir": 7352,
      "ĠrÃ¶ntgeni": 7353,
      "ĠDÃ¼zgen": 7354,
      "ĠmesleÄŁi": 7355,
      "ĠmesleÄŁini": 7356,
      "ĠiÅŁtahsÄ±zlÄ±k": 7357,
      "Ġberaber": 7358,
      "ĠimkÃ¢nsÄ±z": 7359,
      "ĠSorun": 7360,
      "ĠYayÄ±nlarÄ±": 7361,
      "ĠbulunmamaktadÄ±r": 7362,
      "Ġ................................................................................................................": 7363,
      "ĠÃ¶fkelen": 7364,
      "ĠfiilÃ®n": 7365,
      "Ġmuhtemel": 7366,
      "Ġsahneye": 7367,
      "ĠyaralanmasÄ±": 7368,
      "ĠSÄ±cak": 7369,
      "Ġakraba": 7370,
      "ĠmÄ±rÄ±ldandÄ±": 7371,
      "ĠKutbay": 7372,
      "ĠOsman": 7373,
      "ĠNÃ¶bet": 7374,
      "92": 7375,
      "AZ": 7376,
      "As": 7377,
      "EC": 7378,
      "ES": 7379,
      "NasÄ±l": 7380,
      "aA": 7381,
      "ale": 7382,
      "bran": 7383,
      "cen": 7384,
      "cel": 7385,
      "ht": 7386,
      "jit": 7387,
      "kor": 7388,
      "kun": 7389,
      "nm": 7390,
      "ous": 7391,
      "ze": 7392,
      "Ã¼lasyon": 7393,
      "Ġbet": 7394,
      "ĠduÅŁ": 7395,
      "Ġsakat": 7396,
      "Ġsof": 7397,
      "ladÄ±ÄŁÄ±nÄ±": 7398,
      "imon": 7399,
      "imdeki": 7400,
      "aki": 7401,
      "aktif": 7402,
      "Ġtra": 7403,
      "Ġkaleme": 7404,
      "Ġkaza": 7405,
      "urinin": 7406,
      "ĠolsaydÄ±m": 7407,
      "Ġml": 7408,
      "ĠSÃ¶yle": 7409,
      "Ġnam": 7410,
      "Ġnazar": 7411,
      "ulmuÅŁ": 7412,
      "ĠÃ¶teki": 7413,
      "ĠHatta": 7414,
      "ĠAÅŁÄ±rÄ±": 7415,
      "ĠKad": 7416,
      "ĠiÃ§ti": 7417,
      "ĠiÃ§ten": 7418,
      "ĠiÃ§imden": 7419,
      "Ã¼kle": 7420,
      "Ġilet": 7421,
      "ĠiÃ§indeki": 7422,
      "ĠalÄ±nÄ±r": 7423,
      "Ġanaliz": 7424,
      "Ġsonunu": 7425,
      "Ġbilet": 7426,
      "Ġetken": 7427,
      "ĠÃ¶nlemek": 7428,
      "utbol": 7429,
      "ĠgerÃ§": 7430,
      "ĠGir": 7431,
      "ĠGÃ¼Ã§": 7432,
      "ĠÃ®": 7433,
      "ĠMal": 7434,
      "ĠMeme": 7435,
      "Ġvermesi": 7436,
      "Ġvermedi": 7437,
      "ĠdÃ¼ÅŁÃ¼yor": 7438,
      "metri": 7439,
      "Ġbulmak": 7440,
      "tÄ±rdÄ±m": 7441,
      "Ġsorunun": 7442,
      "ĠzamanÄ±": 7443,
      "Ġyanak": 7444,
      "ĠolacaÄŁÄ±m": 7445,
      "alÄ±yor": 7446,
      "Ġkanunda": 7447,
      "Ġelleri": 7448,
      "lÄ±ÄŁÄ±yla": 7449,
      "ĠhastayÄ±": 7450,
      "ifo": 7451,
      "ĠyÃ¼zey": 7452,
      "Ġevre": 7453,
      "Ã¼cÃ¼k": 7454,
      "ĠCon": 7455,
      "Ġ51": 7456,
      "ĠReÅŁit": 7457,
      "ĠbaÅŁlamÄ±ÅŁ": 7458,
      "Ġgitmem": 7459,
      "Ġduyuyorum": 7460,
      "Ġharca": 7461,
      "Ġ66": 7462,
      "ĠbileÄŁi": 7463,
      "Ġdoktorun": 7464,
      "ĠbaÅŁkalarÄ±na": 7465,
      "ĠBeyle": 7466,
      "Ġyolunu": 7467,
      "Ġkendisinin": 7468,
      "Ġeskisi": 7469,
      "ĠkonuÅŁurken": 7470,
      "ĠdÃ¼zenlenen": 7471,
      "Ġyetene": 7472,
      "Ġtoplam": 7473,
      "Ġcebine": 7474,
      "ĠtaÅŁÄ±n": 7475,
      "Ġhekimi": 7476,
      "Ġrahatlama": 7477,
      "ĠoluÅŁur": 7478,
      "ĠkadÄ±nla": 7479,
      "ĠhakkÄ±nÄ±": 7480,
      "ĠhakkÄ±nÄ±n": 7481,
      "ĠyapÄ±la": 7482,
      "lerimizi": 7483,
      "Ġsindirim": 7484,
      "ĠgÃ¶revini": 7485,
      "Ġhepimiz": 7486,
      "ĠÃ§ocuklarÄ±n": 7487,
      "ĠyapacaÄŁÄ±m": 7488,
      "anÄ±ma": 7489,
      "ĠÃ§evre": 7490,
      "ĠkÄ±smÄ±na": 7491,
      "ĠhÃ¢li": 7492,
      "ĠkÄ±rk": 7493,
      "ĠÃ§are": 7494,
      "ĠdÃ¼ny": 7495,
      "miyorlar": 7496,
      "Ġyumruk": 7497,
      "ĠArkadaÅŁ": 7498,
      "kanlÄ±": 7499,
      "ĠgÃ¶rÃ¼lÃ¼yor": 7500,
      "ĠhastalÄ±klar": 7501,
      "ĠdÃ¶kÃ¼nt": 7502,
      "Ġokudu": 7503,
      "Ġsoktu": 7504,
      "Ġsinirlilik": 7505,
      "ĠolayÄ±n": 7506,
      "ĠuyandÄ±r": 7507,
      "Ġ2003": 7508,
      "ĠUyk": 7509,
      "ĠUygu": 7510,
      "Ġistersen": 7511,
      "ĠarkasÄ±na": 7512,
      "ĠgittiÄŁimde": 7513,
      "Ġannemin": 7514,
      "ĠarttÄ±": 7515,
      "Ġruhsal": 7516,
      "Ġvaziyet": 7517,
      "Ġoynan": 7518,
      "ĠoÄŁlumun": 7519,
      "ĠSolunum": 7520,
      "ĠoluÅŁturur": 7521,
      "ĠolmadÄ±ÄŁÄ±ndan": 7522,
      "ĠgÃ¼cÃ¼m": 7523,
      "ikÃ¢ye": 7524,
      "Ġnelerdir": 7525,
      "ĠAllahÄ±m": 7526,
      "ĠDergisi": 7527,
      "tihap": 7528,
      "Ġtipi": 7529,
      "abilmesi": 7530,
      "Ġfikr": 7531,
      "ĠYata": 7532,
      "ĠBunlarÄ±": 7533,
      "ektroskop": 7534,
      "Ġbeslenme": 7535,
      "ĠGÃ¶rev": 7536,
      "ĠkÃ¶tÃ¼leÅŁti": 7537,
      "Ġlip": 7538,
      "ĠDolayÄ±sÄ±yla": 7539,
      "ĠkalÄ±rsa": 7540,
      "ĠmÄ±sÄ±n": 7541,
      "ĠTambay": 7542,
      "ĠedeceÄŁim": 7543,
      "ĠKimsenin": 7544,
      "Ġnitelendirilmektedir": 7545,
      "Ġalerjisi": 7546,
      "Ġbiyopsi": 7547,
      "ĠkÃ¶ylÃ¼": 7548,
      "ĠÃ§orap": 7549,
      "ĠbronÅŁit": 7550,
      "ĠÅŁartÄ±": 7551,
      "Ġkolesterol": 7552,
      "ĠSÄ±nayalÄ±m": 7553,
      "101": 7554,
      "44": 7555,
      "BB": 7556,
      "Daha": 7557,
      "Kar": 7558,
      "LIK": 7559,
      "Neden": 7560,
      "aca": 7561,
      "acaÄŁÄ±nÄ±": 7562,
      "bÄ±n": 7563,
      "bon": 7564,
      "bat": 7565,
      "cine": 7566,
      "him": 7567,
      "has": 7568,
      "kÄ±r": 7569,
      "kiye": 7570,
      "mana": 7571,
      "nda": 7572,
      "parma": 7573,
      "and": 7574,
      "inek": 7575,
      "indi": 7576,
      "Ġdip": 7577,
      "Ã§iye": 7578,
      "Ã§iler": 7579,
      "orun": 7580,
      "unc": 7581,
      "..\",": 7582,
      "ĠBay": 7583,
      "ĠBeh": 7584,
      "ĠÃ§Ä±n": 7585,
      "ĠÃ§amaÅŁÄ±r": 7586,
      "Ġyama": 7587,
      "Ġmuz": 7588,
      "ĠSar": 7589,
      "ĠSok": 7590,
      "ĠSiv": 7591,
      "Ġng": 7592,
      "Ġnq": 7593,
      "Ġnes": 7594,
      "ĠniÅŁan": 7595,
      "ĠdaÄŁÄ±n": 7596,
      "ĠÅŁaka": 7597,
      "ĠAda": 7598,
      "ĠAler": 7599,
      "ĠaldÄ±ÄŁÄ±mda": 7600,
      "ĠbaÅŁar": 7601,
      "biliyor": 7602,
      "Ġbilmeden": 7603,
      "Ġetmez": 7604,
      "ĠÃ¶nleyici": 7605,
      "ĠYA": 7606,
      "ĠkarÄ±sÄ±nÄ±n": 7607,
      "ĠarasÄ±ndan": 7608,
      "Ġrak": 7609,
      "ĠOy": 7610,
      "ĠGerek": 7611,
      "Ġveriyordu": 7612,
      "ĠÃ§Ä±kmak": 7613,
      "Ġkalka": 7614,
      "ĠgÃ¼ne": 7615,
      "ĠdÃ¼ÅŁen": 7616,
      "ĠiÅŁten": 7617,
      "ĠiÅŁlenen": 7618,
      "bilirdi": 7619,
      "ĠyanÄ±ndan": 7620,
      "ĠhaksÄ±zlÄ±k": 7621,
      "Ã¼sÃ¼nÃ¼": 7622,
      "Ġdokusu": 7623,
      "ĠaÃ§Ä±l": 7624,
      "ĠdÃ¼ÅŁÃ¼nÃ¼l": 7625,
      "ĠdÃ¼ÅŁÃ¼nmÃ¼ÅŁ": 7626,
      "ĠdÃ¼ÅŁÃ¼nÃ¼yordu": 7627,
      "ĠdeÄŁildim": 7628,
      "Ġdurumuna": 7629,
      "ĠAnad": 7630,
      "erebilir": 7631,
      "aÄŁÄ±n": 7632,
      "urganlÄ±k": 7633,
      "Ġderma": 7634,
      "Ġmeden": 7635,
      "Ã¼stem": 7636,
      "ĠRen": 7637,
      "larÄ±mdan": 7638,
      "tikam": 7639,
      "Ġolanlar": 7640,
      "mazdÄ±m": 7641,
      "ĠkiÅŁili": 7642,
      "Ġlbs": 7643,
      "ĠsÄ±klÄ±kla": 7644,
      "Ġparan": 7645,
      "ĠkÄ±la": 7646,
      "ĠBilg": 7647,
      "ĠOndan": 7648,
      "Ġaziz": 7649,
      "ĠbaÄŁÄ±ÅŁÄ±klÄ±k": 7650,
      "ĠsaÄŁlÄ±kla": 7651,
      "Ġtuttur": 7652,
      "ĠtakÄ±": 7653,
      "ĠsÄ±rtÄ±": 7654,
      "Ġserin": 7655,
      "ĠbÄ±rakÄ±p": 7656,
      "vatif": 7657,
      "Ġoturan": 7658,
      "Ġbelirtmek": 7659,
      "ĠetkileÅŁ": 7660,
      "natif": 7661,
      "Ġbenzet": 7662,
      "ĠÃ¶nemsiz": 7663,
      "Ġadli": 7664,
      "ĠkuruluÄŁu": 7665,
      "Ġbizden": 7666,
      "ĠyaptÄ±lar": 7667,
      "Ġtabaka": 7668,
      "Ġgeride": 7669,
      "Ġhayatta": 7670,
      "ĠuyanÄ±yorum": 7671,
      "ĠErtesi": 7672,
      "ĠBenimle": 7673,
      "Ġuykuya": 7674,
      "ĠazaldÄ±": 7675,
      "luÄŁun": 7676,
      "ĠSaat": 7677,
      "ĠElini": 7678,
      "tÄ±ÄŁÄ±mÄ±": 7679,
      "Ġcidd": 7680,
      "ĠÄ°Ã§in": 7681,
      "Ġkonusudur": 7682,
      "Ġseninle": 7683,
      "Ġ150": 7684,
      "ĠAkciÄŁer": 7685,
      "ĠkemiÄŁimin": 7686,
      "ĠGÃ¶zlerini": 7687,
      "ĠheyecanlÄ±": 7688,
      "ĠYanma": 7689,
      "Ġbekliyordu": 7690,
      "ĠYarÄ±n": 7691,
      "ĠuzmanÄ±na": 7692,
      "ĠfakÃ¼lt": 7693,
      "tuÄŁum": 7694,
      "vikal": 7695,
      "ĠKusur": 7696,
      "Ġgerginlik": 7697,
      "ĠÃ¶zellikleri": 7698,
      "ĠÃ§atlak": 7699,
      "ĠsÄ±rtÄ±mÄ±n": 7700,
      "Ġberrak": 7701,
      "ĠkenarÄ±na": 7702,
      "dokrin": 7703,
      "ĠInf": 7704,
      "ĠÄ°ngilizce": 7705,
      "ĠbaÅŁlangÄ±Ã§ta": 7706,
      "ĠsÃ¼recinde": 7707,
      "eptÃ¶r": 7708,
      "ĠmÃ¼zik": 7709,
      "bjektif": 7710,
      "Ġrandevu": 7711,
      "ĠÃĸÄŁret": 7712,
      "Ġdamla": 7713,
      "Ġtomografi": 7714,
      "ĠKendine": 7715,
      "Ġabsorp": 7716,
      "05": 7717,
      "31": 7718,
      "81": 7719,
      "AST": 7720,
      "Gen": 7721,
      "Haya": 7722,
      "TCK": 7723,
      "bÃ¼tÃ¼n": 7724,
      "emal": 7725,
      "hekim": 7726,
      "hasta": 7727,
      "mda": 7728,
      "tomi": 7729,
      "Ġur": 7730,
      "Ġlam": 7731,
      "Ġbis": 7732,
      "erin": 7733,
      "inim": 7734,
      "ĠkÃ¢": 7735,
      "iran": 7736,
      "Ã§et": 7737,
      "Ġgem": 7738,
      "Ġhev": 7739,
      "Ġton": 7740,
      "Ġtet": 7741,
      "Ġiken": 7742,
      "ural": 7743,
      "ĠBox": 7744,
      "ĠSana": 7745,
      "Ġnis": 7746,
      "isti": 7747,
      "ĠKo": 7748,
      "Ä±nÄ±l": 7749,
      "ĠbulaÅŁÄ±k": 7750,
      "Ġpir": 7751,
      "Ġpor": 7752,
      "itus": 7753,
      "Ä°S": 7754,
      "Ä°yi": 7755,
      "Ġrut": 7756,
      "ĠyaÅŁÄ±ndan": 7757,
      "sela": 7758,
      "Ġgeldik": 7759,
      "ĠdÃ¼ÅŁkÃ¼n": 7760,
      "Ġceket": 7761,
      "Ġdurur": 7762,
      "Ġdururken": 7763,
      "ĠiÅŁim": 7764,
      "tÄ±rarak": 7765,
      "ĠgeÃ§iÅŁ": 7766,
      "Ġyerlere": 7767,
      "ĠsaÄŁlayan": 7768,
      "ĠBirinci": 7769,
      "ĠsÃ¼rece": 7770,
      "ĠhastalÄ±ÄŁa": 7771,
      "Ġradikal": 7772,
      "ĠyÃ¼zyÄ±l": 7773,
      "Ġderisi": 7774,
      "Ġmetal": 7775,
      "ĠÃĩÄ±k": 7776,
      "ĠRÃľ": 7777,
      "ĠRÃ¼stem": 7778,
      "ĠFurin": 7779,
      "Ġalter": 7780,
      "melisin": 7781,
      "Ġbulunmayan": 7782,
      "ĠkarÅŁÄ±sÄ±na": 7783,
      "Ġokun": 7784,
      "ĠsÄ±kÄ±ntÄ±sÄ±": 7785,
      "ĠVekil": 7786,
      "Ġpark": 7787,
      "ĠkÄ±yÄ±": 7788,
      "ĠÅŁekli": 7789,
      "ĠÅŁekeri": 7790,
      "ĠBilin": 7791,
      "Ġmua": 7792,
      "malÄ±ydÄ±m": 7793,
      "ĠdeÄŁiÅŁimleri": 7794,
      "terem": 7795,
      "ĠbaÄŁlan": 7796,
      "mezsin": 7797,
      "ĠÃ§Ä±karÄ±ldÄ±": 7798,
      "Ġdenetim": 7799,
      "Ġesrar": 7800,
      "Ġtutar": 7801,
      "ĠkonuÅŁuyordu": 7802,
      "ĠburuÅŁtur": 7803,
      "ĠyaÅŁadÄ±ÄŁÄ±": 7804,
      "ĠyaÅŁamadÄ±m": 7805,
      "Ġ74": 7806,
      "larÄ±ndaki": 7807,
      "ĠgÃ¼ldÃ¼r": 7808,
      "ĠgÃ¶revli": 7809,
      "Ġnormaldi": 7810,
      "unuzu": 7811,
      "Ġodadan": 7812,
      "Ġfib": 7813,
      "Ġoyunlar": 7814,
      "ĠÃ¶nerir": 7815,
      "ĠgeliÅŁim": 7816,
      "ĠkapÄ±da": 7817,
      "ĠkontrolÃ¼": 7818,
      "ĠDoktora": 7819,
      "veya": 7820,
      "ĠdayanamÄ±yorum": 7821,
      "Ġsaklama": 7822,
      "Ġyemekten": 7823,
      "ajin": 7824,
      "Ġunuttum": 7825,
      "ĠÃ¼lkenin": 7826,
      "ĠSavaÅŁ": 7827,
      "ĠElbette": 7828,
      "ubat": 7829,
      "ĠbabamÄ±n": 7830,
      "Ġ2014": 7831,
      "Ġhipo": 7832,
      "ĠkÃ¢ÄŁÄ±dÄ±": 7833,
      "ĠyaÅŁamÄ±ÅŁ": 7834,
      "ĠBakkal": 7835,
      "ĠaÅŁkÄ±n": 7836,
      "ĠvÃ¼cudun": 7837,
      "ĠkÃ¼rtaj": 7838,
      "ĠuzmanÄ±": 7839,
      "ĠKaygÄ±": 7840,
      "ĠyÄ±kan": 7841,
      "ĠKendisi": 7842,
      "ĠdaÄŁÄ±l": 7843,
      "Ġduygusu": 7844,
      "Ġyorgunum": 7845,
      "ĠGÃ¶rÃ¼n": 7846,
      "ĠYaÅŁa": 7847,
      "Ġezber": 7848,
      "Ġyenil": 7849,
      "Ġkocaman": 7850,
      "ĠkarnÄ±mÄ±n": 7851,
      "ĠreÃ§et": 7852,
      "Ġhamileyim": 7853,
      "Ġproblemleri": 7854,
      "Ġmiyiz": 7855,
      "Ġgidecek": 7856,
      "dakilerden": 7857,
      "ĠkÃ¶pr": 7858,
      "ĠaralÄ±klÄ±": 7859,
      "ĠbulaÅŁÄ±cÄ±": 7860,
      "ĠbozukluklarÄ±": 7861,
      "ĠÃ¼mitsiz": 7862,
      "ĠTanrÄ±": 7863,
      "ULU": 7864,
      "Ġsivilc": 7865,
      "fekte": 7866,
      "Ġtitre": 7867,
      "eratif": 7868,
      "atÃ¼rre": 7869,
      "ĠTaksir": 7870,
      "Ġekspresyon": 7871,
      "plant": 7872,
      "Ġmisafir": 7873,
      "ĠhÃ¼rriyet": 7874,
      "Ġereksiyon": 7875,
      "ĠYÃ¼kÃ¼mlÃ¼lÃ¼kleri": 7876,
      "ĠDepresyon": 7877,
      "ĠgÃ¶vde": 7878,
      "ĠMayÄ±s": 7879,
      "kaÅŁÄ±ntÄ±": 7880,
      "ĠRÃľSTEM": 7881,
      ".âĢ¢": 7882,
      "71": 7883,
      "Ay": 7884,
      "BD": 7885,
      "OD": 7886,
      "Sa": 7887,
      "dd": 7888,
      "dele": 7889,
      "iÄŁi": 7890,
      "jo": 7891,
      "ly": 7892,
      "liye": 7893,
      "mon": 7894,
      "meni": 7895,
      "muyorum": 7896,
      "olar": 7897,
      "pe": 7898,
      "sayÄ±": 7899,
      "uis": 7900,
      "yÄ±n": 7901,
      "yasal": 7902,
      "zm": 7903,
      "zan": 7904,
      "ÃĤ": 7905,
      "ī¥": 7906,
      "Ã¼b": 7907,
      "inasyon": 7908,
      "Ġdili": 7909,
      "ĠdÃ¶rdÃ¼ncÃ¼": 7910,
      "ĠsÃ¼nnet": 7911,
      "mamÄ±ÅŁtÄ±": 7912,
      "ilelik": 7913,
      "ĠalÄ±": 7914,
      "Ġalabilir": 7915,
      "ĠalamÄ±yorum": 7916,
      "Ġalev": 7917,
      "Ġhid": 7918,
      "Ġhoca": 7919,
      "ĠhikÃ¢ye": 7920,
      "ĠodanÄ±n": 7921,
      "ĠtÃ¼berkÃ¼loz": 7922,
      "ĠkaÃ§a": 7923,
      "asÄ±n": 7924,
      "ĠÃ§im": 7925,
      "ĠÃ§Ã¶p": 7926,
      "este": 7927,
      "Ġmuydu": 7928,
      "izy": 7929,
      "izon": 7930,
      "emmel": 7931,
      "ĠSizi": 7932,
      "ĠbayÄ±": 7933,
      "eydim": 7934,
      "eyken": 7935,
      "ĠÅŁans": 7936,
      "ĠHAN": 7937,
      "ĠHoca": 7938,
      "ĠHUK": 7939,
      "ĠKÄ±rmÄ±zÄ±": 7940,
      "ĠKanama": 7941,
      "Ġef": 7942,
      "atuvar": 7943,
      "landÄ±rÄ±": 7944,
      "Ġzinc": 7945,
      "ĠDanÄ±ÅŁtay": 7946,
      "ĠgÃ¶rmeye": 7947,
      "Ġyaprak": 7948,
      "ĠaÄŁrÄ±yÄ±": 7949,
      "ĠMÄ±sra": 7950,
      "saÄŁ": 7951,
      "ĠÃ§Ä±kmÄ±ÅŁtÄ±": 7952,
      "ĠuyarÄ±": 7953,
      "laÅŁÄ±yor": 7954,
      "ĠNÃ¶r": 7955,
      "ĠNisan": 7956,
      "Ġdurup": 7957,
      "Ġend": 7958,
      "ĠiÅŁken": 7959,
      "lamatu": 7960,
      "ĠgeÃ§erken": 7961,
      "ĠBiri": 7962,
      "ĠBirbir": 7963,
      "ĠsÃ¼rer": 7964,
      "ĠyardÄ±ma": 7965,
      "ĠaÄŁrÄ±sÄ±z": 7966,
      "Ġmahal": 7967,
      "Ġkayna": 7968,
      "iliÄŁinden": 7969,
      "mayalÄ±m": 7970,
      "Ġnedensellik": 7971,
      "Ġkibar": 7972,
      "ĠbÃ¼yÃ¼y": 7973,
      "ĠÃ§alÄ±ÅŁtÄ±ÄŁÄ±": 7974,
      "Ġ59": 7975,
      "Ġdersin": 7976,
      "Ġmedi": 7977,
      "Ġmesela": 7978,
      "ĠgÃ¶zlerine": 7979,
      "ĠÃĩek": 7980,
      "ĠkullanÄ±yordum": 7981,
      "Ġ43": 7982,
      "ĠROS": 7983,
      "Ġediliyor": 7984,
      "ĠmÃ¼ca": 7985,
      "Ġduydu": 7986,
      "Ġ63": 7987,
      "Ġ64": 7988,
      "Ġsevk": 7989,
      "Ġseviyorum": 7990,
      "Ġdoktoruma": 7991,
      "ĠdÄ±ÅŁÄ±na": 7992,
      "ĠbaÄŁlam": 7993,
      "Ġdenk": 7994,
      "Ġtutan": 7995,
      "Ġtutun": 7996,
      "Ġhareketsiz": 7997,
      "Ġkabuk": 7998,
      "Ġtoprak": 7999,
      "ĠbÃ¶lÃ¼n": 8000,
      "Ġoturuyor": 8001,
      "Ġgetirdi": 8002,
      "Ġederdi": 8003,
      "Ġterlemesi": 8004,
      "Ġressam": 8005,
      "Ġizi": 8006,
      "ĠyapabileceÄŁim": 8007,
      "ĠÃ¶ÄŁrenmek": 8008,
      "ning": 8009,
      "ĠkaÃ§Ä±nÄ±l": 8010,
      "ĠÃ§aresiz": 8011,
      "ĠalanÄ±": 8012,
      "ĠÄ°nsanlarÄ±n": 8013,
      "acaktÄ±r": 8014,
      "ĠimmÃ¼n": 8015,
      "Ġimtihan": 8016,
      "ĠDoktorlar": 8017,
      "ĠhayatÄ±na": 8018,
      "ĠolduklarÄ±nÄ±": 8019,
      "ĠyararÄ±na": 8020,
      "Ġ120": 8021,
      "ĠgittiÄŁi": 8022,
      "ĠÃĸnc": 8023,
      "ĠdÃ¼ÅŁÃ¼nceleri": 8024,
      "ĠkÄ±saca": 8025,
      "kÃ¢nÄ±": 8026,
      "ĠgÃ¼lÃ¼ms": 8027,
      "ĠsÄ±kÄ±ÅŁmasÄ±": 8028,
      "Ġdirse": 8029,
      "Ä±lmadÄ±k": 8030,
      "Ġhavaya": 8031,
      "ĠhÃ¼kÃ¼mleri": 8032,
      "Ġkurtara": 8033,
      "etice": 8034,
      "ĠKiÅŁilik": 8035,
      "ĠdÃ¶nemleri": 8036,
      "tuÄŁunu": 8037,
      "ĠMÃ¼dÃ¼r": 8038,
      "ĠaraÅŁtÄ±rÄ±l": 8039,
      "ĠkapsamlÄ±": 8040,
      "Ġtehlikeye": 8041,
      "ĠkÄ±sÄ±k": 8042,
      "ĠkÃ¢ÄŁÄ±tlarÄ±": 8043,
      "ĠuygulanmasÄ±": 8044,
      "ĠHamit": 8045,
      "larÄ±mÄ±zla": 8046,
      "ĠYazÄ±": 8047,
      "INDA": 8048,
      "Ġsokaklarda": 8049,
      "ĠfaydasÄ±": 8050,
      "Ġmasraf": 8051,
      "LARI": 8052,
      "...............": 8053,
      "Ġyolcul": 8054,
      "ĠkÃ¼tÃ¼p": 8055,
      "ĠKelime": 8056,
      "Ġomurilik": 8057,
      "ĠbasÄ±ncÄ±m": 8058,
      "ĠYatak": 8059,
      "Ġtahlil": 8060,
      "ĠmolekÃ¼l": 8061,
      "ĠendiÅŁeliyim": 8062,
      "ĠBorÃ§lar": 8063,
      "ĠBildirgesi": 8064,
      "ĠBehÃ§et": 8065,
      "ĠAnadolu": 8066,
      "ĠHUKUK": 8067,
      "56": 8068,
      "Bak": 8069,
      "Bur": 8070,
      "Dur": 8071,
      "DÄ°": 8072,
      "DanÄ±ÅŁtay": 8073,
      "Hekim": 8074,
      "Or": 8075,
      "TÄ°": 8076,
      "co": 8077,
      "gÃ¶ÄŁÃ¼s": 8078,
      "liyordu": 8079,
      "lÃ®": 8080,
      "nde": 8081,
      "pha": 8082,
      "rum": 8083,
      "sus": 8084,
      "Ġblok": 8085,
      "ÅŁet": 8086,
      "Ġduman": 8087,
      "Ġsim": 8088,
      "Ġsola": 8089,
      "Ã¶tÃ¼": 8090,
      "dasyon": 8091,
      "Ġth": 8092,
      "ĠkaÅŁÄ±": 8093,
      "Ġyatan": 8094,
      "Ġmeni": 8095,
      "Ġmimar": 8096,
      "izden": 8097,
      "dul": 8098,
      "ĠSarÄ±": 8099,
      "Ġnorm": 8100,
      "ĠgÃ¶k": 8101,
      "raya": 8102,
      "ĠHÄ±z": 8103,
      "Ġeh": 8104,
      "Ġex": 8105,
      "Ġedip": 8106,
      "liÄŁiyle": 8107,
      "ĠbugÃ¼ne": 8108,
      "Ġua": 8109,
      "Ġilliyet": 8110,
      "sten": 8111,
      "ĠTav": 8112,
      "arap": 8113,
      "ĠbaÅŁÄ±nÄ±n": 8114,
      "ĠDE": 8115,
      "ĠDar": 8116,
      "Ġbilemiyorum": 8117,
      "dÄ±rÄ±m": 8118,
      "Ġartrit": 8119,
      "ĠÄ°ster": 8120,
      "ĠyaÅŁarken": 8121,
      "ĠMen": 8122,
      "ĠMik": 8123,
      "tansiy": 8124,
      "ĠÃ§Ä±kÄ±yordu": 8125,
      "ĠEK": 8126,
      "lenmiÅŁ": 8127,
      "Ġdurgun": 8128,
      "yÄ±p": 8129,
      "Ġsordum": 8130,
      "rotum": 8131,
      "ĠyanÄ±mda": 8132,
      "ĠoranÄ±": 8133,
      "ĠsaÄŁladÄ±ÄŁÄ±": 8134,
      "Åŀimdi": 8135,
      "tory": 8136,
      "ĠanladÄ±": 8137,
      "ĠÅŁiÅŁman": 8138,
      "Ġtaraflar": 8139,
      "0000": 8140,
      "tikleri": 8141,
      "Ġzorla": 8142,
      "ĠbulunduÄŁunu": 8143,
      "ĠbÃ¼tÃ¼nÃ¼yle": 8144,
      "ahim": 8145,
      "ĠVar": 8146,
      "ĠgÃ¶rÃ¼nÃ¼m": 8147,
      "iyete": 8148,
      "Ġ69": 8149,
      "Ġsever": 8150,
      "ĠkÄ±za": 8151,
      "tering": 8152,
      "Ġdeneyim": 8153,
      "Ġtutunamayan": 8154,
      "ĠAydÄ±n": 8155,
      "ĠkonuÅŁmaya": 8156,
      "ĠdÃ¼zenleyen": 8157,
      "Ġsaht": 8158,
      "Ġtopluluk": 8159,
      "durum": 8160,
      "ĠKaranlÄ±k": 8161,
      "meliyiz": 8162,
      "Ġ84": 8163,
      "ĠsuÃ§larÄ±": 8164,
      "ĠsuÃ§undan": 8165,
      "Ġkorkuyordu": 8166,
      "ĠHassas": 8167,
      "Ġ76": 8168,
      "lÄ±rdÄ±": 8169,
      "Ġ93": 8170,
      "Ġ98": 8171,
      "resel": 8172,
      "Ġterap": 8173,
      "Ġsayf": 8174,
      "Ġbitkin": 8175,
      "Ġsaatlerce": 8176,
      "Ġdinley": 8177,
      "Ġhissediyor": 8178,
      "Ġboyu": 8179,
      "Ġayaklarda": 8180,
      "ĠkaÃ§Ä±rma": 8181,
      "ÃľR": 8182,
      "ĠHastalÄ±klarÄ±": 8183,
      "ĠyumuÅŁ": 8184,
      "amama": 8185,
      "gÄ±nlÄ±k": 8186,
      "ĠkaÅŁÄ±n": 8187,
      "ĠGÃ¼nlÃ¼k": 8188,
      "ĠdavranÄ±ÅŁÄ±n": 8189,
      "ĠdolaÅŁÄ±m": 8190,
      "Ġbeyan": 8191,
      "ĠoÄŁl": 8192,
      "ĠhapÅŁÄ±rma": 8193,
      "ĠÄ°ltihap": 8194,
      "ĠSerbest": 8195,
      "ĠÄ±ÅŁÄ±n": 8196,
      "Ġannesi": 8197,
      "Ġrenkte": 8198,
[...]
